▁xxunk	0
▁xxpad	0
▁xxbos	0
▁xxeos	0
▁xxfld	0
▁xxmaj	0
▁xxup	0
▁xxrep	0
▁xxwrep	0
<unk>	0
▁	-2.01725
,	-2.96397
.	-3.08605
▁the	-3.3153
▁of	-3.97148
▁and	-4.06574
▁a	-4.21446
-	-4.21712
▁in	-4.33486
▁to	-4.38711
▁(	-4.55812
▁is	-4.71004
▁for	-4.79433
▁we	-4.96336
▁on	-5.27713
▁that	-5.31702
▁xxref	-5.32545
▁with	-5.34847
▁)	-5.41203
:	-5.41538
▁as	-5.41862
)	-5.46664
s	-5.49539
▁are	-5.55268
▁this	-5.62619
▁by	-5.62861
▁1	-5.65514
▁?	-5.66937
▁[	-5.71291
▁be	-5.82051
▁]	-5.82994
▁i	-5.83126
▁from	-5.8826
▁learning	-5.93364
▁t	-5.93862
▁an	-5.9711
▁x	-6.02087
▁model	-6.03509
▁can	-6.0722
▁/	-6.07825
▁data	-6.091
▁=	-6.13248
▁2	-6.15708
▁which	-6.16492
▁our	-6.18462
▁n	-6.18963
▁m	-6.23209
▁k	-6.26889
▁it	-6.28018
▁p	-6.30698
▁j	-6.31482
▁s	-6.31765
▁d	-6.39371
▁using	-6.39878
▁neural	-6.42661
▁l	-6.43122
▁each	-6.46015
▁c	-6.51185
▁r	-6.54443
▁training	-6.57701
▁network	-6.58843
▁image	-6.60088
▁have	-6.60335
▁or	-6.61685
▁not	-6.61774
e	-6.62021
▁f	-6.65968
▁networks	-6.66944
▁set	-6.67035
▁e	-6.67442
▁at	-6.70349
▁used	-6.70757
d	-6.71038
▁y	-6.71434
▁where	-6.72516
▁models	-6.73067
▁all	-6.7359
▁two	-6.74261
’	-6.76091
▁b	-6.80924
▁one	-6.81152
▁3	-6.81225
▁information	-6.82855
▁0	-6.83243
▁use	-6.8325
▁w	-6.84289
▁such	-6.85236
▁results	-6.85262
▁h	-6.86645
▁has	-6.87187
▁arxiv	-6.87378
▁these	-6.87584
▁deep	-6.8797
▁g	-6.90307
▁function	-6.92135
▁method	-6.93442
▁between	-6.96443
▁also	-6.96747
table	-6.96863
▁more	-6.97518
▁figure	-6.98244
▁algorithm	-6.99989
a	-7.02235
▁number	-7.02694
▁methods	-7.02759
▁different	-7.0356
▁v	-7.05023
▁features	-7.06764
▁images	-7.07402
▁problem	-7.07504
▁work	-7.0996
▁“	-7.1
▁then	-7.10072
▁time	-7.10468
▁machine	-7.111
▁first	-7.13659
▁performance	-7.14206
).	-7.14247
▁pp	-7.14469
▁xx	-7.15251
▁dataset	-7.16121
▁only	-7.17582
▁approach	-7.17988
▁based	-7.20382
▁abstract	-7.20586
▁word	-7.20644
▁if	-7.2128
▁proposed	-7.21404
based	-7.22169
▁z	-7.22993
▁input	-7.23049
▁was	-7.24159
▁other	-7.25121
▁conference	-7.25534
▁given	-7.25629
▁when	-7.25942
g	-7.26066
i	-7.27118
▁∈	-7.27477
▁over	-7.28018
▁into	-7.28147
▁its	-7.30032
”	-7.30159
▁than	-7.30471
▁classification	-7.3207
▁systems	-7.3278
▁both	-7.32995
▁but	-7.34403
▁feature	-7.34713
▁task	-7.34748
),	-7.34781
▁their	-7.35123
▁paper	-7.3682
▁been	-7.38078
;	-7.38234
▁u	-7.38552
▁q	-7.40763
▁distribution	-7.42282
▁4	-7.43177
▁large	-7.43867
t	-7.44201
▁however	-7.44255
▁will	-7.44262
▁new	-7.44641
▁state	-7.45499
▁layer	-7.46272
▁same	-7.47052
▁some	-7.47482
y	-7.47878
▁system	-7.48009
▁vector	-7.49185
▁matrix	-7.49836
▁while	-7.50819
▁there	-7.50904
2	-7.51065
▁|	-7.5125
▁analysis	-7.51251
▁language	-7.52355
b	-7.5267
▁section	-7.54816
▁processing	-7.55022
▁international	-7.55199
▁test	-7.55295
▁loss	-7.55416
▁example	-7.56309
▁space	-7.57661
▁optimization	-7.57769
▁table	-7.57969
▁o	-7.58529
▁non	-7.59786
the	-7.60159
▁recognition	-7.60719
▁proceedings	-7.60837
▁words	-7.6173
▁×	-7.61924
▁they	-7.62263
▁most	-7.62297
▁show	-7.62581
▁convolutional	-7.62935
▁parameters	-7.62945
▁well	-7.63695
▁representation	-7.64525
c	-7.65152
▁size	-7.65266
▁were	-7.65707
▁et	-7.66357
▁high	-7.66451
(	-7.66596
▁ieee	-7.66741
▁any	-7.67186
▁algorithms	-7.67441
▁following	-7.67855
th	-7.68208
▁al	-7.68248
▁+	-7.68554
▁θ	-7.68667
▁multi	-7.69051
▁output	-7.70094
▁5	-7.70683
▁trained	-7.70836
ing	-7.7089
▁).	-7.71606
▁gradient	-7.7233
n	-7.7249
of	-7.72656
▁text	-7.72681
to	-7.72818
▁random	-7.73281
▁accuracy	-7.7419
▁body	-7.74752
▁}	-7.75678
▁preprint	-7.76475
▁title	-7.76907
▁shown	-7.77111
▁case	-7.77629
▁process	-7.77768
x	-7.77822
▁tasks	-7.77858
▁may	-7.78156
▁experiments	-7.79055
▁so	-7.79271
▁no	-7.80289
k	-7.80626
▁detection	-7.81263
▁research	-7.81567
r	-7.82001
▁many	-7.82124
▁representations	-7.82426
▁2017.	-7.83164
▁R	-7.83458
▁2016.	-7.83875
▁probability	-7.83895
▁order	-7.84505
▁since	-7.84873
▁10	-7.84888
▁target	-7.8544
▁layers	-7.85631
▁architecture	-7.85975
▁computer	-7.86482
▁do	-7.87395
▁single	-7.87478
▁propose	-7.87794
▁segmentation	-7.88139
m	-7.88544
▁value	-7.88937
▁graph	-7.8907
▁sequence	-7.89141
▁prediction	-7.89482
▁{	-7.90295
▁datasets	-7.90501
▁similar	-7.91614
▁class	-7.91701
▁linear	-7.92489
▁framework	-7.9303
▁samples	-7.93214
▁how	-7.93838
▁1:	-7.9399
▁domain	-7.94158
▁real	-7.94674
▁2015.	-7.94832
▁let	-7.95102
▁attention	-7.95321
▁three	-7.95711
▁′	-7.95894
▁better	-7.96624
▁??	-7.96907
▁sentence	-7.9765
▁second	-7.97701
▁thus	-7.9865
▁values	-7.99499
▁object	-7.99739
▁adversarial	-8.00106
▁knowledge	-8.00268
▁approaches	-8.00681
▁context	-8.0071
▁learn	-8.01291
▁through	-8.0192
▁structure	-8.0237
▁functions	-8.02708
▁*	-8.03175
▁α	-8.03775
▁very	-8.04221
▁evaluation	-8.04253
▁step	-8.04254
▁error	-8.04267
p	-8.04621
▁point	-8.04864
▁multiple	-8.05038
▁human	-8.05338
l	-8.05387
▁inference	-8.05413
▁introduction	-8.0551
ed	-8.05837
▁vision	-8.07886
▁fig	-8.08077
▁shows	-8.0813
1	-8.09425
▁semantic	-8.09567
▁best	-8.09588
▁embedding	-8.09717
▁without	-8.10318
▁problems	-8.10502
▁train	-8.10636
▁low	-8.10671
▁...	-8.1109
level	-8.11357
▁vectors	-8.11385
▁rate	-8.11402
j	-8.11937
▁examples	-8.12125
▁points	-8.12319
▁sample	-8.12572
▁translation	-8.1272
▁standard	-8.13263
▁λ	-8.13825
▁pages	-8.14268
▁consider	-8.14293
▁several	-8.14916
▁simple	-8.14948
▁visual	-8.15402
▁search	-8.15952
▁them	-8.162
▁result	-8.1635
in	-8.16381
▁2014.	-8.16598
▁stochastic	-8.16615
▁applications	-8.17021
▁small	-8.17163
▁journal	-8.17248
▁end	-8.17644
▁under	-8.17701
▁natural	-8.1774
▁source	-8.1775
▁after	-8.17761
▁embeddings	-8.18016
▁noise	-8.1817
▁;	-8.18529
▁applied	-8.18668
▁possible	-8.19369
▁present	-8.19875
▁local	-8.20772
–	-8.20851
▁should	-8.2108
▁would	-8.21177
▁advances	-8.21406
▁defined	-8.21574
▁original	-8.21846
▁computational	-8.21928
▁form	-8.21951
▁previous	-8.22111
▁here	-8.2246
▁corresponding	-8.22592
▁further	-8.23123
▁user	-8.23244
▁mean	-8.23406
▁about	-8.23443
▁references	-8.23666
▁general	-8.23736
▁therefore	-8.23795
▁gaussian	-8.23927
▁weights	-8.24096
▁distance	-8.2413
art	-8.24281
▁latent	-8.24391
▁follows	-8.24885
▁available	-8.25264
ly	-8.2537
▁parameter	-8.25767
▁hidden	-8.25955
▁because	-8.26359
▁note	-8.2646
▁average	-8.26652
▁φ	-8.26887
▁generated	-8.27303
▁estimation	-8.27452
▁similarity	-8.27864
▁does	-8.2801
▁due	-8.28399
▁related	-8.28611
▁obtained	-8.29204
▁provide	-8.29731
▁via	-8.3042
▁σ	-8.30683
▁pattern	-8.30727
▁generative	-8.30851
▁terms	-8.31343
▁during	-8.3242
v	-8.32472
▁optimal	-8.32802
▁like	-8.33074
▁even	-8.33601
▁respectively	-8.33898
▁part	-8.34002
▁variables	-8.34366
▁6	-8.34544
▁objective	-8.34733
▁score	-8.3496
dimensional	-8.3509
▁label	-8.35501
▁compared	-8.35719
▁2018.	-8.35789
▁labels	-8.36184
▁bayesian	-8.36211
▁regression	-8.36555
▁way	-8.36794
▁sets	-8.37261
▁recent	-8.37391
▁out	-8.37552
▁techniques	-8.37634
▁could	-8.37708
▁kernel	-8.37848
▁solution	-8.38184
▁speech	-8.38269
▁cnn	-8.38402
h	-8.38988
▁above	-8.39289
▁classifier	-8.39857
▁memory	-8.39984
▁make	-8.40963
f	-8.41126
,”	-8.41445
3	-8.41449
▁pre	-8.41606
▁efficient	-8.41622
▁recurrent	-8.41722
w	-8.41913
▁sampling	-8.42185
▁need	-8.42236
▁prior	-8.42471
▁study	-8.42631
▁∥	-8.43032
▁learned	-8.43579
▁de	-8.43843
▁2:	-8.44264
▁find	-8.44361
▁particular	-8.44418
▁long	-8.44473
▁classes	-8.4485
▁important	-8.44987
▁generate	-8.45638
▁≤	-8.46238
▁log	-8.46529
▁video	-8.46793
▁signal	-8.46813
_	-8.46901
▁within	-8.47259
▁main	-8.47282
▁].	-8.47349
▁ε	-8.4755
scale	-8.47584
▁δ	-8.47606
▁corpus	-8.47934
▁often	-8.47948
▁question	-8.48217
org	-8.48329
▁quality	-8.48477
▁obtain	-8.4874
▁map	-8.49294
▁setting	-8.49456
▁up	-8.49891
▁policy	-8.50276
▁improve	-8.50346
▁sentences	-8.50526
▁lower	-8.50818
net	-8.50928
▁sparse	-8.51084
▁abs	-8.51147
▁perform	-8.51357
▁term	-8.51359
▁>	-8.51496
▁reinforcement	-8.51621
▁current	-8.51637
▁decision	-8.51783
▁us	-8.51795
▁cost	-8.51812
▁top	-8.52059
▁modeling	-8.52482
▁re	-8.52997
▁variational	-8.53108
▁π	-8.53153
▁see	-8.53184
▁across	-8.53704
▁cross	-8.53907
▁computation	-8.53957
▁various	-8.54027
▁weight	-8.54119
▁theory	-8.54317
▁statistical	-8.54517
▁uses	-8.54963
▁node	-8.54968
▁much	-8.55614
▁2013.	-8.55856
▁http	-8.55913
▁document	-8.56453
▁encoder	-8.56605
▁level	-8.57157
▁positive	-8.57408
▁proof	-8.57417
▁<	-8.57632
▁variable	-8.57838
▁define	-8.57868
▁existing	-8.5788
▁generation	-8.58471
▁every	-8.5858
▁found	-8.58645
▁per	-8.58809
▁complex	-8.58827
▁another	-8.58913
▁clustering	-8.58933
▁β	-8.58996
▁measure	-8.593
▁⋅	-8.59488
▁unsupervised	-8.59792
▁fully	-8.5983
▁higher	-8.59838
▁bound	-8.59865
▁acm	-8.59882
▁finally	-8.59958
▁instead	-8.60002
▁binary	-8.60166
▁selection	-8.60342
▁intelligence	-8.60706
▁μ	-8.60707
▁approximation	-8.6075
z	-8.60884
▁pairs	-8.61285
▁complexity	-8.61438
▁novel	-8.61558
▁li	-8.61809
▁statistics	-8.61951
▁being	-8.62027
▁next	-8.62172
▁cases	-8.62218
▁max	-8.62345
▁distributions	-8.63157
▁common	-8.6331
▁instance	-8.63413
▁comparison	-8.63548
?	-8.6395
▁final	-8.64133
▁those	-8.6419
▁nodes	-8.6422
▁theorem	-8.64469
}	-8.6512
▁volume	-8.65255
▁baseline	-8.65265
▁artificial	-8.65368
▁control	-8.65398
▁contains	-8.66018
▁8	-8.66035
er	-8.66082
▁type	-8.6621
▁works	-8.66371
▁design	-8.66497
▁fixed	-8.66768
▁hand	-8.66804
or	-8.67072
see	-8.67278
▁directly	-8.6729
▁global	-8.67858
▁sub	-8.67901
▁properties	-8.6829
▁action	-8.6865
▁future	-8.68809
end	-8.68936
▁→	-8.69057
▁described	-8.69394
▁additional	-8.6948
▁including	-8.69564
▁lstm	-8.70021
o	-8.70054
▁computing	-8.7007
▁zhang	-8.70095
▁online	-8.70109
▁compute	-8.70113
▁good	-8.70256
▁maps	-8.70276
▁known	-8.70557
▁introduce	-8.70571
▁presented	-8.71122
▁metric	-8.71165
▁‘	-8.71254
▁objects	-8.7143
▁goal	-8.71528
▁2012.	-8.71556
▁url	-8.71654
▁evaluate	-8.7166
▁bengio	-8.71669
▁types	-8.71737
▁fast	-8.71811
▁scores	-8.72
▁recently	-8.72059
▁tree	-8.72094
▁able	-8.72262
▁denote	-8.72401
▁now	-8.72476
▁estimate	-8.72489
▁robust	-8.72502
▁7	-8.73688
▁assume	-8.73983
▁last	-8.74213
▁∕	-8.74483
▁distributed	-8.74597
▁length	-8.7489
▁specific	-8.75266
▁few	-8.75314
▁experimental	-8.7536
▁temporal	-8.75436
▁joint	-8.75456
▁equation	-8.75514
▁γ	-8.75555
▁∑	-8.7577
▁spatial	-8.75842
▁consists	-8.75868
▁transfer	-8.75922
▁negative	-8.76016
▁convergence	-8.76183
▁full	-8.76657
▁allows	-8.76686
▁wang	-8.76806
▁total	-8.7689
▁provides	-8.77277
▁validation	-8.77365
▁convolution	-8.77399
▁still	-8.77442
▁initial	-8.77622
▁computed	-8.77633
▁agent	-8.77669
▁maximum	-8.78059
▁observed	-8.7829
▁zero	-8.78334
▁chen	-8.78513
▁according	-8.78534
▁achieve	-8.79001
and	-8.79162
▁=1	-8.79377
es	-8.79432
▁challenge	-8.79789
▁less	-8.79835
▁conditional	-8.79866
▁true	-8.79976
▁application	-8.80206
▁predict	-8.80277
▁focus	-8.80538
▁continuous	-8.81073
▁among	-8.81177
▁support	-8.81954
▁take	-8.82035
▁least	-8.82402
▁respect	-8.82637
▁architectures	-8.83218
▁depth	-8.83533
▁regularization	-8.83666
▁science	-8.83915
▁provided	-8.83924
▁batch	-8.83955
▁called	-8.84272
▁demonstrate	-8.84999
▁scale	-8.85001
▁1)	-8.85038
▁get	-8.85042
▁steps	-8.85072
▁what	-8.85149
▁short	-8.85572
▁considered	-8.85594
▁dimension	-8.85664
▁include	-8.85825
▁represent	-8.85893
▁addition	-8.85919
▁hence	-8.86296
▁probabilistic	-8.86419
▁fact	-8.86513
▁users	-8.86863
▁procedure	-8.86882
5	-8.86916
▁components	-8.86983
▁ground	-8.87078
al	-8.87183
▁pixel	-8.87361
▁activation	-8.87464
▁&	-8.87604
▁definition	-8.87631
▁means	-8.87728
▁before	-8.87788
▁2011.	-8.87812
▁series	-8.8802
▁requires	-8.88093
▁+1	-8.88245
▁update	-8.88363
▁details	-8.88395
▁empirical	-8.88579
▁compare	-8.88615
▁topic	-8.88779
▁significant	-8.88861
▁experiment	-8.88999
▁matching	-8.89724
▁apply	-8.89753
▁key	-8.89835
▁approximate	-8.89934
▁states	-8.89984
▁difference	-8.90257
▁implementation	-8.9046
▁descent	-8.90476
▁regions	-8.90547
▁–	-8.90576
▁either	-8.90651
▁english	-8.90943
▁must	-8.90952
▁vol	-8.91075
▁face	-8.91281
▁performed	-8.91359
▁version	-8.91453
▁code	-8.91473
▁lemma	-8.91669
▁understanding	-8.91774
▁pair	-8.91855
▁springer	-8.9217
▁right	-8.92502
▁3:	-8.92564
▁significantly	-8.92654
▁selected	-8.9282
]	-8.93126
▁relation	-8.93182
▁range	-8.93203
▁independent	-8.93615
▁open	-8.93616
▁https	-8.93673
▁testing	-8.93862
▁variance	-8.93995
▁languages	-8.94313
▁left	-8.94369
▁resulting	-8.94614
▁corr	-8.94639
▁region	-8.94689
▁predictions	-8.94774
▁content	-8.94939
▁expected	-8.95163
▁units	-8.95275
▁strategy	-8.95378
▁extraction	-8.95404
▁matrices	-8.95424
▁automatic	-8.95431
▁field	-8.95446
▁ω	-8.95607
▁constraints	-8.9564
▁line	-8.957
▁achieved	-8.95824
time	-8.96156
▁although	-8.96378
▁factor	-8.96696
▁effective	-8.96873
▁four	-8.96882
▁≥	-8.96914
▁supervised	-8.97229
▁medical	-8.97279
▁9	-8.97304
▁component	-8.97434
▁posterior	-8.97439
7	-8.98252
▁2009.	-8.98264
▁introduced	-8.98883
q	-8.9893
▁report	-8.98957
▁environment	-8.98999
▁uncertainty	-8.99158
▁limited	-8.9919
▁_	-8.99251
▁individual	-8.99373
▁contrast	-8.99704
▁whether	-8.99765
▁transactions	-8.99827
▁frame	-9.00057
▁sequences	-9.00313
▁reconstruction	-9.00385
▁associated	-9.00449
▁constant	-9.00576
▁mechanism	-9.00691
▁useful	-9.00734
cnn	-9.00912
▁require	-9.01079
▁along	-9.01098
▁made	-9.011
u	-9.01141
▁group	-9.01194
▁inputs	-9.01272
▁metrics	-9.0153
▁change	-9.01624
▁filter	-9.01737
▁pixels	-9.01912
▁solve	-9.02246
▁mapping	-9.0242
▁color	-9.02437
▁capture	-9.02536
▁times	-9.02601
▁denotes	-9.02875
▁20	-9.02876
▁density	-9.02919
▁block	-9.03031
▁2010.	-9.03554
on	-9.03554
▁describe	-9.03642
▁larger	-9.03708
▁authors	-9.03801
▁residual	-9.03831
▁likelihood	-9.03907
▁labeled	-9.03997
▁outputs	-9.04092
▁hierarchical	-9.04102
▁graphs	-9.0424
▁usually	-9.04602
▁doi	-9.04835
▁product	-9.04897
com	-9.04954
▁convex	-9.0497
▁improved	-9.05253
▁domains	-9.05496
▁co	-9.05958
▁seen	-9.0605
▁scene	-9.06161
wise	-9.06391
▁specifically	-9.06712
▁sum	-9.069
▁patterns	-9.07042
▁query	-9.07064
▁he	-9.0722
▁rule	-9.07222
▁parallel	-9.07303
▁fine	-9.07463
▁combination	-9.07491
▁review	-9.07563
▁(1)	-9.07636
▁flow	-9.07676
▁entity	-9.07757
▁randomly	-9.0805
▁processes	-9.0806
▁technique	-9.08265
▁phase	-9.08475
as	-9.08674
▁scheme	-9.08676
▁elements	-9.087
▁social	-9.08777
▁development	-9.08832
▁eq	-9.0886
▁makes	-9.08947
▁100	-9.08964
▁represents	-9.09016
▁moreover	-9.09251
▁choice	-9.0952
▁discrete	-9.09587
4	-9.09862
▁idea	-9.10027
▁decoder	-9.10202
▁generalization	-9.10215
▁you	-9.10344
~	-9.10445
▁tensor	-9.1049
▁))	-9.10594
▁connected	-9.10619
▁cluster	-9.10729
▁2017	-9.10755
▁rather	-9.10856
▁generator	-9.11216
▁self	-9.11437
▁extracted	-9.11573
▁dynamic	-9.11594
▁assumption	-9.11646
▁style	-9.11735
▁~	-9.11805
▁←	-9.11871
▁takes	-9.12106
▁ρ	-9.12205
▁shape	-9.12242
▁towards	-9.12358
▁interest	-9.12359
▁iteration	-9.12494
▁effect	-9.12646
▁relevant	-9.12689
▁unit	-9.12856
▁rnn	-9.12944
▁reference	-9.13064
▁association	-9.13318
▁improvement	-9.13326
▁accurate	-9.13344
▁address	-9.13365
▁liu	-9.13515
▁difficult	-9.13545
▁measures	-9.13629
▁correlation	-9.13705
▁against	-9.13726
▁conditions	-9.13777
▁power	-9.13917
▁produce	-9.13953
▁classifiers	-9.14057
▁reduce	-9.14218
trained	-9.14292
▁answer	-9.144
▁certain	-9.14434
▁web	-9.14612
▁overall	-9.14727
▁reward	-9.1511
▁bias	-9.15154
▁view	-9.15162
▁below	-9.1523
▁active	-9.15355
▁precision	-9.15443
▁david	-9.15491
▁norm	-9.15747
▁instances	-9.16094
▁categories	-9.16136
▁position	-9.16378
▁required	-9.16383
▁popular	-9.16528
▁event	-9.16735
▁amount	-9.16859
▁subset	-9.16864
▁furthermore	-9.16876
▁retrieval	-9.1694
▁represented	-9.17034
▁transformation	-9.17189
▁risk	-9.17373
▁typically	-9.17465
▁database	-9.17529
▁predicted	-9.17529
▁camera	-9.17629
▁observations	-9.17781
order	-9.17927
▁making	-9.18261
▁meta	-9.18365
learning	-9.18443
▁questions	-9.18458
▁frames	-9.18517
▁generating	-9.18562
▁rank	-9.18707
▁constraint	-9.18849
▁adaptation	-9.18899
▁nature	-9.19114
▁entropy	-9.19337
▁might	-9.19346
▁semi	-9.19504
▁path	-9.20343
▁sentiment	-9.20433
▁2.1	-9.20444
▁correct	-9.2049
▁behavior	-9.20561
▁challenging	-9.20589
▁filters	-9.20623
▁conclusion	-9.20709
▁truth	-9.20719
st	-9.20969
▁potential	-9.21136
▁back	-9.214
▁practice	-9.2142
▁background	-9.21495
▁motion	-9.21719
▁edge	-9.21805
▁τ	-9.21916
▁weighted	-9.22108
▁developed	-9.22212
▁(1	-9.22277
▁solutions	-9.22399
▁imaging	-9.22442
▁increase	-9.22461
▁traditional	-9.22488
is	-9.22509
▁3.1	-9.22542
▁imagenet	-9.22604
▁cannot	-9.22652
▁shared	-9.22686
▁highly	-9.22887
▁direction	-9.23006
▁chosen	-9.23007
▁basic	-9.232
9	-9.23209
▁structures	-9.23277
▁whole	-9.2331
▁relations	-9.23555
▁ensemble	-9.23724
▁rules	-9.2406
▁hinton	-9.24068
▁needed	-9.24079
▁normalization	-9.24126
+	-9.24479
▁evaluated	-9.2465
▁workshop	-9.24884
▁bounds	-9.2502
▁press	-9.25229
▁dynamics	-9.25248
linear	-9.25433
▁changes	-9.256
▁dropout	-9.25729
▁markov	-9.25818
▁build	-9.25907
▁give	-9.25939
▁settings	-9.25943
▁done	-9.26053
▁hard	-9.2613
▁studies	-9.26188
▁un	-9.26235
▁clusters	-9.26292
▁literature	-9.26301
▁run	-9.26375
▁parts	-9.26461
▁around	-9.26559
▁importance	-9.26822
▁frequency	-9.26846
▁together	-9.26917
▁relative	-9.26927
▁help	-9.26944
▁gives	-9.27018
▁resolution	-9.27125
▁solving	-9.27275
▁response	-9.27659
▁smaller	-9.27679
▁adam	-9.27757
▁contain	-9.2796
▁[1]	-9.28006
term	-9.28113
▁character	-9.28261
▁synthetic	-9.28339
—	-9.28345
▁base	-9.28378
▁extract	-9.28453
▁module	-9.28453
▁outperforms	-9.28574
▁row	-9.28747
▁van	-9.2879
layer	-9.28936
▁etc	-9.29034
▁adaptive	-9.2906
▁reduction	-9.29075
▁speed	-9.2909
▁game	-9.29113
▁benchmark	-9.29114
▁nips	-9.29375
▁programming	-9.29711
▁ij	-9.29932
▁list	-9.29942
▁program	-9.30079
▁location	-9.30152
▁gradients	-9.30186
▁just	-9.30218
▁structured	-9.30399
▁entities	-9.30454
▁annotation	-9.30528
▁errors	-9.30618
▁noisy	-9.30743
▁pooling	-9.30803
▁softmax	-9.30911
▁audio	-9.31108
▁pose	-9.31245
▁university	-9.31251
▁agents	-9.31498
▁(2)	-9.31636
▁identify	-9.3186
world	-9.32012
▁automatically	-9.32067
▁documents	-9.32229
▁applying	-9.32311
▁category	-9.32553
supervised	-9.3263
▁world	-9.32668
▁[2]	-9.32897
▁whose	-9.3303
▁transform	-9.3325
▁easily	-9.33316
▁designed	-9.33385
an	-9.33534
▁4:	-9.3356
▁actions	-9.33646
▁description	-9.33976
▁ability	-9.34005
▁dimensions	-9.34054
▁discriminator	-9.34122
▁equal	-9.34257
▁allow	-9.34447
▁stage	-9.34524
▁achieves	-9.34534
class	-9.34588
▁encoding	-9.34626
▁formulation	-9.34674
▁observation	-9.34845
▁finding	-9.34939
▁area	-9.34993
▁column	-9.35066
▁wide	-9.35135
▁iterations	-9.35203
en	-9.35421
▁vocabulary	-9.3547
▁years	-9.35645
▁le	-9.35662
▁split	-9.35743
▁threshold	-9.35881
▁sequential	-9.35944
▁50	-9.3604
▁alignment	-9.36141
▁[3]	-9.36342
▁building	-9.36344
▁theoretical	-9.36373
▁simply	-9.36534
▁implemented	-9.36608
▁trees	-9.36884
▁2008.	-9.36912
▁observe	-9.37031
▁always	-9.37076
▁11	-9.37152
▁candidate	-9.37157
▁probabilities	-9.37237
▁faster	-9.37334
▁concept	-9.37342
▁property	-9.3738
▁close	-9.37394
▁mixture	-9.37397
▁operations	-9.37496
▁spectral	-9.37518
▁2.2	-9.37596
▁upper	-9.37662
▁mining	-9.37677
▁ranking	-9.37689
▁2016	-9.37827
▁η	-9.38001
▁factors	-9.38208
▁choose	-9.38295
▁condition	-9.38304
specific	-9.38469
▁especially	-9.38597
▁predictive	-9.3872
▁leads	-9.38777
▁practical	-9.38907
▁attributes	-9.38944
▁finite	-9.39184
▁[4]	-9.39292
▁mnist	-9.39521
▁combined	-9.39652
▁compression	-9.39699
▁increasing	-9.40004
▁index	-9.40135
▁predicting	-9.40247
▁gan	-9.40344
▁annotated	-9.40471
up	-9.40632
[	-9.40773
▁person	-9.40963
▁estimated	-9.41139
▁strong	-9.4133
▁dense	-9.41376
▁signals	-9.41392
▁create	-9.41429
▁element	-9.41531
▁hypothesis	-9.41628
▁underlying	-9.41853
▁followed	-9.41882
▁special	-9.4246
▁operator	-9.4276
▁third	-9.42832
▁dictionary	-9.42921
▁sense	-9.43048
▁covariance	-9.43208
▁min	-9.43273
▁dependency	-9.43361
▁operation	-9.43409
▁phrase	-9.43414
▁sparsity	-9.43466
▁[5]	-9.43584
▁proc	-9.43724
▁machines	-9.43807
▁refer	-9.4381
▁sun	-9.43889
▁minimum	-9.43891
▁12	-9.4394
gram	-9.4394
▁brain	-9.43958
▁far	-9.44122
▁transition	-9.4422
▁widely	-9.44263
task	-9.44392
▁collection	-9.44504
▁unknown	-9.44517
▁edges	-9.44688
for	-9.44696
8	-9.44896
▁learns	-9.44903
▁projection	-9.44982
▁basis	-9.45396
▁ones	-9.45528
▁similarly	-9.45717
▁performs	-9.45924
▁32	-9.46193
▁energy	-9.4629
▁cnns	-9.46295
▁30	-9.46417
▁side	-9.46504
▁16	-9.46569
▁entire	-9.46573
▁normal	-9.46573
▁construct	-9.46691
▁equivalent	-9.4671
0	-9.4672
shot	-9.46748
▁taking	-9.47184
▁3.2	-9.47253
▁generally	-9.47275
▁recall	-9.47296
▁icml	-9.47309
▁numbers	-9.47351
▁post	-9.47426
▁2006.	-9.47441
▁forward	-9.47455
▁account	-9.4793
▁[6]	-9.47947
▁ratio	-9.47953
▁15	-9.48107
▁neurons	-9.48223
▁contributions	-9.48278
▁black	-9.48304
▁calculated	-9.48318
▁add	-9.48325
▁select	-9.4853
▁evidence	-9.48624
▁yang	-9.4866
▁having	-9.48925
▁sampled	-9.49023
▁variety	-9.4925
▁dimensionality	-9.49291
▁rates	-9.49731
▁videos	-9.49907
id	-9.49909
▁lead	-9.5001
vec	-9.50013
▁technical	-9.50315
▁exact	-9.50348
▁groups	-9.50391
▁ψ	-9.5068
▁synthesis	-9.50733
▁adding	-9.50737
▁robustness	-9.50802
▁likely	-9.50807
▁software	-9.50983
▁explore	-9.5107
▁michael	-9.51127
▁advantage	-9.5119
▁complete	-9.51248
ii	-9.51332
▁kernels	-9.51399
▁decomposition	-9.51483
▁mask	-9.51494
▁confidence	-9.51512
▁sizes	-9.51597
▁start	-9.51747
▁,...,	-9.52066
▁combining	-9.52149
▁follow	-9.52194
▁easy	-9.52197
▁issue	-9.52206
▁meaning	-9.52483
▁necessary	-9.52643
▁window	-9.52648
▁develop	-9.52664
▁nonlinear	-9.52778
▁news	-9.52812
▁exploration	-9.52946
▁strategies	-9.53085
▁discussion	-9.53146
▁rely	-9.53268
▁alternative	-9.53291
▁concepts	-9.53318
▁efficiency	-9.53331
▁investigate	-9.53447
▁unique	-9.53466
▁taken	-9.53494
▁epochs	-9.53617
▁[7]	-9.53718
▁discriminative	-9.53735
▁reported	-9.53821
▁containing	-9.53887
▁cifar	-9.53916
▁people	-9.54095
▁annotations	-9.54313
▁tool	-9.54739
▁2007.	-9.54788
rank	-9.54826
▁corresponds	-9.54976
▁added	-9.55052
▁tracking	-9.55138
▁sutskever	-9.55237
▁includes	-9.55247
▁topics	-9.55253
▁numerical	-9.55325
▁who	-9.55639
▁separate	-9.55678
▁success	-9.55744
▁improves	-9.55834
re	-9.55896
∕	-9.56037
▁patches	-9.56059
▁setup	-9.56076
▁once	-9.56133
▁hyper	-9.56185
▁patient	-9.56208
▁lee	-9.56492
▁challenges	-9.5653
▁false	-9.56539
▁generalized	-9.56545
▁aim	-9.56624
▁project	-9.56641
▁inequality	-9.56659
▁⊤	-9.56708
▁subject	-9.56892
▁mathematical	-9.57034
▁though	-9.57055
▁interaction	-9.57189
▁role	-9.57196
▁expression	-9.5726
▁direct	-9.57337
▁www	-9.57345
▁linguistics	-9.57436
▁becomes	-9.57457
▁corpora	-9.5752
▁speaker	-9.57536
▁yu	-9.57776
▁denoted	-9.57779
man	-9.57824
▁community	-9.57892
▁clinical	-9.57942
▁estimates	-9.57966
▁events	-9.57975
▁summary	-9.58175
):	-9.58177
▁̇	-9.58221
▁written	-9.58513
"	-9.58566
▁john	-9.58593
▁gap	-9.58738
nd	-9.58793
▁missing	-9.59034
▁reasoning	-9.59037
▁discovery	-9.59272
▁prove	-9.59308
▁consistent	-9.59352
▁estimator	-9.59409
▁derived	-9.59441
▁media	-9.59537
▁exists	-9.59568
▁dialogue	-9.59666
▁inverse	-9.5974
▁arbitrary	-9.59765
▁andrew	-9.60109
▁improving	-9.60139
▁yoshua	-9.60278
▁jointly	-9.60339
▁enough	-9.60494
▁divergence	-9.60608
it	-9.60673
▁normalized	-9.60723
▁relationship	-9.60723
▁had	-9.60875
▁efficiently	-9.6088
▁early	-9.60996
▁become	-9.60999
▁showed	-9.61022
▁manner	-9.61056
▁partial	-9.61246
▁previously	-9.61247
▁overview	-9.61418
▁blocks	-9.61434
=	-9.61801
▁match	-9.61872
▁[8]	-9.6193
▁extended	-9.62
▁items	-9.62057
▁minimization	-9.62066
▁supported	-9.62078
▁impact	-9.62104
free	-9.6231
▁papers	-9.62568
▁major	-9.62599
▁25	-9.62626
▁call	-9.62691
▁five	-9.62806
▁__	-9.62823
▁determine	-9.62848
▁interesting	-9.62856
one	-9.6289
▁annual	-9.62977
▁soft	-9.63076
▁box	-9.63321
▁lin	-9.63342
▁2018	-9.63371
▁relu	-9.63504
▁performing	-9.63523
gan	-9.63565
▁auto	-9.63595
▁svm	-9.63772
▁avoid	-9.63826
▁created	-9.63883
▁yet	-9.63974
▁collected	-9.64046
▁ma	-9.64055
▁cell	-9.64155
▁degree	-9.64166
▁improvements	-9.64433
▁feedback	-9.64541
▁studied	-9.64568
▁[0	-9.64592
-1	-9.64629
▁engineering	-9.64645
▁classical	-9.64777
{	-9.64885
▁equations	-9.64923
▁parsing	-9.64927
▁considering	-9.64974
we	-9.65023
▁levels	-9.65062
▁detect	-9.65168
▁needs	-9.65213
▁2015	-9.65368
▁already	-9.65389
▁geometric	-9.65414
▁differences	-9.6542
▁attacks	-9.65483
▁article	-9.65518
▁cvpr	-9.65568
▁expectation	-9.65633
▁indicates	-9.65743
▁reduced	-9.6577
▁factorization	-9.6581
▁attribute	-9.65843
▁curve	-9.65867
▁increases	-9.65912
▁holds	-9.66353
▁updates	-9.66525
▁tweets	-9.66533
▁grid	-9.6662
▁(0	-9.66654
▁population	-9.66675
▁others	-9.66814
▁detailed	-9.66926
▁relatively	-9.66962
▁explicitly	-9.67132
able	-9.67159
▁1]	-9.67235
▁linguistic	-9.67327
▁minimizing	-9.67332
like	-9.67336
▁xu	-9.67478
▁resources	-9.67491
lstm	-9.67494
▁itself	-9.67495
▁minimize	-9.676
▁appear	-9.67627
▁variation	-9.67627
▁augmentation	-9.67727
▁fields	-9.67766
▁too	-9.67787
▁sgd	-9.67872
▁inspired	-9.67887
▁channel	-9.68219
▁manifold	-9.68238
▁past	-9.68334
training	-9.68408
▁explicit	-9.68709
▁your	-9.68711
▁phrases	-9.68758
▁kl	-9.68846
▁contribution	-9.68934
▁whereas	-9.69094
▁∞	-9.69139
▁raw	-9.69303
▁representing	-9.69342
▁:=	-9.69398
▁item	-9.69406
▁hyperparameters	-9.69519
▁tools	-9.6956
▁access	-9.69847
▁extend	-9.69918
by	-9.70118
▁author	-9.70154
domain	-9.70168
▁highest	-9.70374
▁built	-9.70486
with	-9.70569
de	-9.70776
▁appendix	-9.71161
▁unlabeled	-9.71187
▁effectiveness	-9.71241
▁identity	-9.7141
▁communication	-9.71595
▁conventional	-9.71905
▁huang	-9.71977
▁bayes	-9.71993
▁usa	-9.72054
▁"	-9.72102
▁simulation	-9.72129
▁13	-9.72161
▁scaling	-9.72208
▁connections	-9.72236
▁attack	-9.7225
▁fusion	-9.72347
▁resnet	-9.72364
▁employed	-9.72413
point	-9.72413
▁center	-9.72469
▁otherwise	-9.72572
us	-9.72693
▁5:	-9.7271
▁boundary	-9.72771
▁want	-9.72793
▁tokens	-9.72815
▁coefficients	-9.7282
▁rest	-9.72834
▁despite	-9.72871
▁share	-9.72894
▁assumptions	-9.73023
▁scenarios	-9.73138
▁labeling	-9.73142
▁[9]	-9.73171
▁channels	-9.73279
▁spaces	-9.73297
▁did	-9.73355
▁manually	-9.73494
▁sources	-9.73522
▁suitable	-9.73552
▁until	-9.73588
▁bottom	-9.73631
▁additionally	-9.73633
▁page	-9.73747
▁structural	-9.7381
▁tested	-9.73811
means	-9.73829
▁later	-9.73862
▁iterative	-9.7393
▁contextual	-9.73936
▁pipeline	-9.73938
▁cancer	-9.73992
▁depends	-9.74026
▁named	-9.74138
▁decoding	-9.74322
▁calculate	-9.74327
▁combine	-9.74416
▁transformations	-9.74456
▁discuss	-9.74539
▁bounded	-9.74577
▁interactions	-9.74618
▁autoencoder	-9.74633
▁presents	-9.7484
▁uniform	-9.7485
▁patch	-9.74869
▁comparing	-9.75014
▁library	-9.75205
▁indicate	-9.7528
▁bi	-9.75483
▁skip	-9.75902
▁margin	-9.75945
▁patients	-9.76022
▁produced	-9.76059
▁token	-9.7607
▁produces	-9.76072
▁sensor	-9.76086
▁initialization	-9.76176
▁multimodal	-9.76244
▁appropriate	-9.76447
▁off	-9.76507
▁effectively	-9.7659
▁shift	-9.76653
▁reducing	-9.76686
▁optimize	-9.76816
▁discussed	-9.7689
▁dependencies	-9.76913
▁la	-9.76934
▁semantics	-9.76946
▁vs	-9.76975
▁lines	-9.76994
no	-9.77083
▁monte	-9.77134
▁understand	-9.77204
▁expert	-9.7722
▁starting	-9.77386
▁identification	-9.77396
▁yields	-9.77403
▁go	-9.77436
▁almost	-9.77545
▁family	-9.77568
▁measurements	-9.7767
figure	-9.7791
▁activations	-9.77926
▁running	-9.77931
▁mentioned	-9.78092
▁propagation	-9.78161
valued	-9.78186
▁commonly	-9.78241
▁white	-9.78254
▁simultaneously	-9.78269
step	-9.78311
▁reason	-9.78328
▁games	-9.78452
▁baselines	-9.78682
rnn	-9.78753
▁automated	-9.78798
▁purpose	-9.78914
▁employ	-9.78916
▁64	-9.78934
▁ways	-9.7902
▁alex	-9.79089
▁clear	-9.7912
▁dual	-9.7917
▁indeed	-9.79197
▁belief	-9.79347
▁summarization	-9.79397
decoder	-9.79405
▁analyze	-9.7954
▁characters	-9.79551
▁characteristics	-9.79761
▁surface	-9.79811
ic	-9.79838
▁typical	-9.79875
▁evaluating	-9.79884
▁critical	-9.79887
▁implies	-9.79917
▁disease	-9.79999
box	-9.80018
▁2)	-9.80055
▁survey	-9.80091
▁goodfellow	-9.8011
▁demonstrated	-9.80232
▁logistic	-9.80233
▁filtering	-9.80254
▁constrained	-9.80307
▁particularly	-9.80355
▁2005.	-9.80424
▁notation	-9.80454
image	-9.80688
ness	-9.80764
out	-9.80845
▁construction	-9.80995
▁sufficient	-9.81007
processing	-9.81075
▁environments	-9.81138
▁suppose	-9.8119
6	-9.81238
▁effects	-9.81277
▁bounding	-9.81329
▁syntactic	-9.81408
▁neuron	-9.81549
▁return	-9.81552
▁name	-9.81588
▁providing	-9.81601
▁derive	-9.81609
▁articles	-9.81647
▁scenario	-9.81681
▁beyond	-9.8191
▁extension	-9.82051
▁internal	-9.8209
▁[10]	-9.82254
▁place	-9.82274
▁nmt	-9.82332
▁lack	-9.82373
▁graphical	-9.82437
▁issues	-9.82459
▁researchers	-9.82497
resolution	-9.83007
▁gans	-9.83126
▁privacy	-9.83179
▁aims	-9.83197
right	-9.83213
▁convolutions	-9.83393
▁areas	-9.83415
▁namely	-9.83478
.;	-9.83498
▁red	-9.8355
▁scalable	-9.83585
▁ba	-9.83826
▁wu	-9.83945
▁light	-9.84245
driven	-9.84293
▁desired	-9.84309
▁expensive	-9.84518
▁exist	-9.84571
▁denoising	-9.84617
▁∈{	-9.84626
▁upon	-9.84665
▁near	-9.84681
▁implement	-9.84683
▁evolution	-9.84697
▁unlike	-9.8476
▁physical	-9.84968
▁coding	-9.85068
▁columns	-9.851
▁file	-9.85118
▁entries	-9.85165
▁autoencoders	-9.8517
▁consistency	-9.85219
▁!	-9.85501
label	-9.85518
▁core	-9.85657
▁nets	-9.85681
▁localization	-9.85888
▁answering	-9.85914
▁square	-9.85992
▁variants	-9.86067
▁technology	-9.86142
▁sensing	-9.8616
▁super	-9.86184
▁included	-9.86269
▁aspects	-9.86309
▁public	-9.86341
▁society	-9.86355
▁distinct	-9.86356
▁own	-9.86515
▁handle	-9.86522
▁nlp	-9.86586
▁classify	-9.86587
▁modified	-9.86672
▁chinese	-9.86757
▁appearance	-9.86814
▁planning	-9.86869
▁optical	-9.86926
▁influence	-9.86951
▁rl	-9.86993
▁kingma	-9.87204
▁rgb	-9.87215
▁∇	-9.87419
▁measured	-9.87459
▁responses	-9.87563
▁exponential	-9.87597
▁geoffrey	-9.87613
icml	-9.87678
▁fashion	-9.87839
off	-9.88033
▁ct	-9.88098
▁2014	-9.8813
▁generic	-9.88166
▁promising	-9.88178
▁drawn	-9.88377
▁down	-9.88401
▁lecun	-9.88463
▁look	-9.88549
▁gp	-9.88709
▁estimating	-9.88717
set	-9.88839
▁except	-9.88919
10	-9.88951
▁methodology	-9.88989
▁conclusions	-9.8908
▁coefficient	-9.89265
cs	-9.8944
▁latter	-9.89443
▁hybrid	-9.89464
▁correspond	-9.8959
▁activity	-9.89599
which	-9.89635
▁constructed	-9.89655
▁cloud	-9.89722
▁powerful	-9.89792
▁github	-9.89808
▁approximately	-9.89897
▁encode	-9.90023
▁maximize	-9.90027
▁pruning	-9.90067
▁symmetric	-9.90086
▁diagonal	-9.90088
▁directions	-9.90101
▁again	-9.90271
▁computationally	-9.90276
mbox	-9.90305
▁visualization	-9.90318
acknowledgements	-9.90332
▁segment	-9.90333
▁gpu	-9.90451
▁european	-9.90513
▁assigned	-9.90695
▁reviews	-9.90812
▁regret	-9.90813
▁coordinate	-9.90833
▁tags	-9.9084
▁chain	-9.90875
▁comparable	-9.90936
▁optimized	-9.90986
▁enables	-9.91012
▁lesion	-9.91033
el	-9.91053
θ	-9.91079
▁penalty	-9.91093
▁interpretation	-9.91272
▁nearest	-9.91313
▁big	-9.91358
▁18	-9.91361
▁subspace	-9.91402
▁1998.	-9.91574
-10	-9.91588
▁generates	-9.91704
▁ensure	-9.91939
▁deal	-9.91952
▁forms	-9.92071
▁determined	-9.92122
▁composed	-9.92126
▁ξ	-9.92136
▁longer	-9.92183
▁pos	-9.92422
▁deterministic	-9.92422
▁inter	-9.92557
▁exploit	-9.92787
▁expressions	-9.92795
▁successful	-9.92796
▁intensity	-9.92869
▁york	-9.92937
▁texts	-9.92996
▁mit	-9.93282
▁illustrated	-9.93292
▁proposal	-9.93517
▁know	-9.93534
▁dnn	-9.93558
▁euclidean	-9.936
▁2004.	-9.93605
▁causal	-9.9368
▁sp	-9.93695
▁wikipedia	-9.93712
▁carlo	-9.93733
▁smooth	-9.93795
un	-9.93799
▁pairwise	-9.93923
▁≠	-9.94047
▁head	-9.94049
▁logic	-9.94095
▁locations	-9.94174
▁fit	-9.94187
▁perspective	-9.94249
▁[11]	-9.94271
▁free	-9.94283
▁ml	-9.94319
▁14	-9.94398
▁successfully	-9.94399
▁evolutionary	-9.94442
line	-9.9449
▁supervision	-9.94535
▁detail	-9.94547
▁17	-9.94576
▁tuning	-9.94584
▁quite	-9.94614
▁thank	-9.94754
▁remaining	-9.94759
▁variations	-9.94777
▁presence	-9.94951
▁partition	-9.94986
▁2003.	-9.95022
▁peter	-9.95198
▁rich	-9.95215
▁relationships	-9.95421
nn	-9.95434
at	-9.95574
left	-9.95697
▁zhu	-9.95757
▁zhou	-9.95883
▁distances	-9.95981
▁digital	-9.96235
▁relevance	-9.96325
▁mobile	-9.96349
▁limit	-9.96542
▁multivariate	-9.96571
▁incorporate	-9.96662
▁extensive	-9.9673
▁ai	-9.96839
▁assumed	-9.96981
▁great	-9.97018
▁leading	-9.97054
▁⋆	-9.97096
▁policies	-9.97173
▁experts	-9.9718
▁diverse	-9.97184
▁interpretable	-9.97241
▁remains	-9.97288
▁benefit	-9.97376
▁deviation	-9.97413
▁intermediate	-9.97432
▁humans	-9.97558
▁format	-9.97601
▁leverage	-9.97638
▁measurement	-9.97667
▁lexical	-9.97667
▁(3)	-9.97878
▁files	-9.97899
▁restricted	-9.97928
▁mini	-9.9797
▁⟩	-9.98001
▁showing	-9.98151
▁richard	-9.98305
entropy	-9.98327
▁devices	-9.9841
▁modelling	-9.98701
▁independently	-9.98759
view	-9.98833
space	-9.98887
▁consisting	-9.99115
▁reduces	-9.99116
▁involves	-9.99162
▁why	-9.99196
▁overfitting	-9.99325
▁health	-9.994
▁functional	-9.99431
▁little	-9.99443
▁music	-9.9948
▁pass	-9.99584
▁codes	-9.99695
▁varying	-9.9976
aware	-9.99764
▁variant	-9.99774
▁describes	-9.99848
word	-9.99887
▁tests	-9.99911
▁python	-9.99918
▁focused	-9.99922
▁textual	-10.0001
batch	-10.0003
▁∘	-10.0017
▁connection	-10.0028
▁ren	-10.0035
▁fundamental	-10.0037
▁exactly	-10.0038
▁progress	-10.0042
▁vinyals	-10.0046
▁symposium	-10.0059
▁recommendation	-10.007
▁magnitude	-10.0074
”,	-10.0089
▁2001.	-10.009
▁principal	-10.0092
▁write	-10.0093
▁queries	-10.0097
▁twitter	-10.011
▁marginal	-10.011
▁views	-10.012
▁clearly	-10.0126
▁slightly	-10.0127
▁facial	-10.0135
▁kim	-10.0145
▁6:	-10.0147
ner	-10.0147
▁distributional	-10.0149
▁24	-10.0168
4,	-10.0192
▁detecting	-10.0194
▁priors	-10.0203
▁preprocessing	-10.0204
▁thomas	-10.0228
▁generalize	-10.0228
▁link	-10.0235
▁issn	-10.0252
▁mainly	-10.0253
▁2002.	-10.0256
▁updated	-10.0279
▁universal	-10.028
▁external	-10.0282
▁guarantees	-10.0286
▁resource	-10.029
eds	-10.0303
▁polynomial	-10.0307
▁feed	-10.0314
▁usage	-10.032
▁bo	-10.0321
▁remove	-10.0322
▁realistic	-10.0326
▁2.3	-10.0327
▁optimizing	-10.0332
▁argument	-10.0333
▁explanation	-10.0333
▁200	-10.0336
▁differential	-10.0353
▁treatment	-10.0359
▁suggest	-10.0362
▁width	-10.0365
▁invariant	-10.0368
▁turn	-10.0373
▁competitive	-10.0376
▁criterion	-10.0382
dependent	-10.0395
▁pseudo	-10.0397
attention	-10.0401
▁manual	-10.0403
grained	-10.0412
▁pca	-10.0412
▁crucial	-10.0422
cvpr	-10.0427
▁american	-10.044
▁experience	-10.0441
▁tensorflow	-10.0457
▁principle	-10.046
▁believe	-10.0466
▁identifying	-10.0476
▁fed	-10.0477
if	-10.0478
▁empirically	-10.0486
▁initialized	-10.0517
▁28	-10.0517
▁geometry	-10.0518
▁diagnosis	-10.0519
▁track	-10.0536
modal	-10.0541
▁largest	-10.0543
▁exp	-10.0544
▁utilize	-10.0544
▁allowing	-10.0557
▁national	-10.0558
▁scenes	-10.0564
likelihood	-10.0572
▁history	-10.0574
rd	-10.0574
▁aaai	-10.058
▁bleu	-10.0589
▁half	-10.0599
▁martin	-10.0599
▁caption	-10.0609
▁implicit	-10.0611
▁mode	-10.0651
▁correctly	-10.0673
▁figures	-10.0681
▁krizhevsky	-10.0694
norm	-10.0697
▁motivated	-10.0699
▁solved	-10.0706
▁∀	-10.0706
▁[12]	-10.0709
ation	-10.0713
▁trade	-10.0723
▁hyperparameter	-10.0724
fig	-10.073
▁dialog	-10.0741
▁squared	-10.0741
▁currently	-10.0748
▁simulated	-10.0754
▁count	-10.0763
▁tweet	-10.0765
▁explored	-10.0768
▁augmented	-10.0777
▁acquisition	-10.0778
▁schemes	-10.0788
▁please	-10.0795
▁quantitative	-10.0802
▁detector	-10.0806
▁2013	-10.081
▁robot	-10.0811
▁decisions	-10.0815
▁scales	-10.0815
▁satisfies	-10.0818
▁expressed	-10.0821
▁student	-10.0821
▁1000	-10.0826
▁diffusion	-10.0835
▁adopt	-10.084
4.	-10.0846
▁difficulty	-10.0847
▁4.1	-10.0854
▁increased	-10.0861
ray	-10.0872
▁actually	-10.0876
▁interval	-10.0885
▁conducted	-10.089
▁unseen	-10.0896
▁daniel	-10.0905
▁differentiable	-10.0906
▁regular	-10.0909
connected	-10.0917
▁128	-10.0918
▁inner	-10.0925
ms	-10.0935
▁coordinates	-10.0936
▁⟨	-10.094
▁gain	-10.0944
▁κ	-10.0949
▁modules	-10.095
▁advantages	-10.0959
▁acknowledgments	-10.0959
15	-10.0961
▁backpropagation	-10.0963
▁curves	-10.0964
▁modern	-10.0972
▁divided	-10.0992
▁40	-10.0999
3,	-10.1004
▁rotation	-10.1007
▁art	-10.1008
▁encoded	-10.1013
source	-10.1015
▁quantization	-10.1017
&	-10.1028
▁cognitive	-10.1032
▁minimal	-10.1035
▁auxiliary	-10.1056
▁depending	-10.1058
▁runs	-10.1061
▁cosine	-10.1064
▁outperform	-10.1065
▁losses	-10.1076
▁material	-10.1087
le	-10.1093
▁fourier	-10.11
▁bag	-10.1103
▁stable	-10.1122
▁million	-10.1136
section	-10.1153
▁rows	-10.1154
▁actual	-10.1154
▁beam	-10.1165
▁27	-10.1167
▁descriptions	-10.1172
▁registration	-10.1176
▁en	-10.1178
▁mt	-10.1188
▁iclr	-10.1199
▁kind	-10.12
▁19	-10.1205
▁recovery	-10.1219
▁configuration	-10.1228
▁ilya	-10.1228
▁potentially	-10.123
▁proposition	-10.1236
▁referred	-10.1239
▁helps	-10.125
▁sections	-10.125
▁perturbation	-10.1257
▁comes	-10.1262
▁mixed	-10.1262
▁—	-10.1269
▁try	-10.1281
▁interface	-10.1284
▁majority	-10.1285
▁greater	-10.1288
▁boxes	-10.1288
▁intelligent	-10.1289
▁criteria	-10.1289
negative	-10.1292
▁weak	-10.1322
▁texture	-10.1334
▁cells	-10.1338
known	-10.1343
▁plot	-10.1346
▁mri	-10.1348
▁completion	-10.1351
▁mass	-10.136
temporal	-10.1368
▁simplicity	-10.1373
(1):	-10.1385
▁moving	-10.1388
local	-10.1394
way	-10.1424
▁capacity	-10.1425
▁4.	-10.1433
▁hold	-10.1445
▁rnns	-10.1453
▁trans	-10.1463
▁quadratic	-10.1465
▁introducing	-10.147
parameters	-10.1477
▁di	-10.1478
os	-10.149
▁sciences	-10.1492
▁scientific	-10.1492
▁sign	-10.1514
▁closed	-10.1519
▁positions	-10.1525
▁tables	-10.1529
▁interested	-10.1529
▁keep	-10.1536
1,	-10.1539
▁256	-10.1556
seq	-10.1557
▁christopher	-10.1566
▁5.	-10.1585
▁google	-10.1593
▁extra	-10.1595
▁depend	-10.1611
▁partially	-10.1615
▁gender	-10.1621
vector	-10.164
▁salakhutdinov	-10.164
all	-10.1645
▁enable	-10.1649
▁reading	-10.1653
???	-10.1654
▁recover	-10.1664
▁assuming	-10.1668
▁explain	-10.1677
agent	-10.1686
▁programs	-10.1691
▁grant	-10.1693
▁courville	-10.17
fold	-10.1701
▁cambridge	-10.171
▁sigmoid	-10.1714
▁contexts	-10.1716
▁regularized	-10.1718
▁answers	-10.1722
viewer	-10.1726
5,	-10.1734
▁epoch	-10.1743
▁meaningful	-10.1744
▁3.3	-10.1746
▁deeper	-10.1747
▁blue	-10.1757
▁compact	-10.1757
▁interpolation	-10.1761
▁paths	-10.1767
▁skin	-10.1767
▁acoustic	-10.177
ity	-10.1789
▁formal	-10.1791
▁em	-10.1798
▁heuristic	-10.181
ar	-10.1822
▁absolute	-10.1833
ir	-10.1833
▁diversity	-10.1835
▁overlap	-10.185
▁detected	-10.1853
3.	-10.1858
stage	-10.1875
▁kavukcuoglu	-10.1883
▁publicly	-10.1887
▁naturally	-10.1887
▁utterance	-10.1895
policy	-10.1898
▁reasonable	-10.1903
▁separately	-10.1919
▁bidirectional	-10.1929
▁dirichlet	-10.1929
▁james	-10.193
▁notice	-10.193
λ	-10.1933
▁mark	-10.1944
▁yield	-10.1944
*	-10.1954
▁tagging	-10.1958
▁inside	-10.1963
▁ν	-10.1974
▁platform	-10.1986
▁car	-10.1991
▁integrated	-10.1991
▁incorporating	-10.1992
);	-10.1998
▁physics	-10.2
▁song	-10.2003
▁subjects	-10.2005
▁template	-10.2006
▁neighbors	-10.2014
▁orthogonal	-10.2018
▁identical	-10.2018
▁perturbations	-10.2019
▁lasso	-10.202
▁capable	-10.2027
▁notion	-10.2043
▁cho	-10.2049
size	-10.2054
tuning	-10.2057
▁integration	-10.2066
▁limitations	-10.2068
▁500	-10.208
▁welling	-10.2085
▁silver	-10.2085
nips	-10.2096
parameter	-10.2097
▁sound	-10.2097
▁jia	-10.2103
▁extracting	-10.2113
▁[13]	-10.2119
▁additive	-10.2124
test	-10.2139
▁tend	-10.214
▁graves	-10.2154
▁stability	-10.2166
▁age	-10.2166
▁throughout	-10.2169
▁comments	-10.2198
▁separation	-10.2198
8,	-10.2203
▁uniformly	-10.2204
▁straightforward	-10.2212
▁classified	-10.2218
▁||	-10.2222
▁dimensional	-10.2222
▁utility	-10.2224
▁central	-10.2227
▁mechanisms	-10.2227
▁forest	-10.2233
▁scoring	-10.2242
▁completely	-10.2249
▁appears	-10.2249
▁combinations	-10.2258
▁candidates	-10.2274
▁assessment	-10.2285
score	-10.2286
▁boundaries	-10.2292
▁selecting	-10.2301
▁guarantee	-10.2306
▁diflerent	-10.2308
▁translations	-10.2315
σ	-10.2315
zero	-10.2317
6,	-10.2336
▁lu	-10.2337
▁autonomous	-10.2344
▁vgg	-10.2344
▁rewards	-10.2346
▁st	-10.2351
▁optimizer	-10.2371
▁quantum	-10.2376
▁suggests	-10.2389
▁vertices	-10.2394
▁formally	-10.2394
▁organized	-10.2403
▁schmidhuber	-10.2405
2,	-10.2409
▁span	-10.2417
▁tag	-10.2424
▁essential	-10.2425
▁default	-10.2426
▁svg	-10.244
▁poor	-10.2443
▁message	-10.2446
▁maximizing	-10.2446
interpretability	-10.2455
▁teacher	-10.2458
▁relies	-10.2463
▁say	-10.247
▁package	-10.2475
▁derivative	-10.2498
son	-10.251
▁aggregation	-10.2512
▁captured	-10.2528
▁trajectory	-10.2538
16	-10.255
▁sensors	-10.2552
▁segments	-10.256
▁developing	-10.2561
▁integer	-10.2566
▁preliminary	-10.2568
▁vincent	-10.2568
data	-10.2578
la	-10.2588
▁choosing	-10.2592
il	-10.2605
▁heterogeneous	-10.2633
▁assignment	-10.2638
▁∣	-10.2641
▁valid	-10.2642
▁flexible	-10.2657
▁averaging	-10.2659
▁22	-10.2665
▁concatenation	-10.2668
validation	-10.2674
▁verb	-10.268
▁trajectories	-10.2699
@	-10.2715
▁aligned	-10.2721
em	-10.2727
▁introduces	-10.2727
▁lot	-10.2729
▁overcome	-10.2735
▁cause	-10.2738
▁su	-10.2754
▁removed	-10.2767
▁sensitive	-10.2771
▁P	-10.2772
▁converges	-10.2774
rl	-10.2776
▁distinguish	-10.2788
▁act	-10.2788
ers	-10.279
▁mostly	-10.2791
▁fewer	-10.2793
▁ideas	-10.2797
▁szegedy	-10.2802
ler	-10.2808
▁converge	-10.2817
▁expansion	-10.2848
▁2000.	-10.2853
▁biomedical	-10.2853
▁unified	-10.2853
▁neighborhood	-10.2857
▁subsets	-10.2857
forward	-10.2862
sequence	-10.2864
▁infer	-10.287
▁motivation	-10.2873
▁working	-10.2876
▁bit	-10.2892
▁concatenated	-10.2893
▁singular	-10.2898
17	-10.2901
▁easier	-10.2904
▁sharing	-10.291
▁replaced	-10.2916
▁mathematics	-10.2921
▁correction	-10.2923
▁greedy	-10.293
▁stacked	-10.2938
▁extremely	-10.294
(2):	-10.2942
ai	-10.2945
▁replace	-10.2946
▁ng	-10.2947
▁notes	-10.2949
▁plan	-10.295
▁letters	-10.2954
▁embedded	-10.2956
▁combines	-10.2956
▁strongly	-10.2961
▁aspect	-10.2962
rs	-10.298
▁composition	-10.2983
▁utterances	-10.3
▁his	-10.3008
6.	-10.3013
▁illustrate	-10.3022
▁dependence	-10.3022
▁du	-10.3025
▁genetic	-10.3026
▁⊆	-10.3038
ion	-10.3052
▁operators	-10.3068
▁vertex	-10.3069
▁exploiting	-10.3082
▁identified	-10.3086
▁boosting	-10.3095
▁specified	-10.3098
▁gru	-10.3102
▁hardware	-10.311
▁21	-10.3116
▁occur	-10.3125
▁glove	-10.3127
▁adopted	-10.3132
ian	-10.3133
▁achieving	-10.3133
▁earlier	-10.3145
▁mention	-10.3148
▁bottleneck	-10.3155
▁green	-10.3169
▁computations	-10.3171
▁published	-10.3171
▁4.2	-10.3173
▁seems	-10.3173
▁six	-10.3177
value	-10.3178
▁hu	-10.3181
▁adapt	-10.3184
ad	-10.3187
▁participants	-10.319
▁come	-10.3208
▁7:	-10.321
▁benefits	-10.3219
▁conversation	-10.322
▁eye	-10.3222
▁benchmarks	-10.324
less	-10.3251
▁des	-10.3256
▁requirements	-10.3258
ml	-10.3259
▁care	-10.326
pdf	-10.3269
▁initialize	-10.3269
▁besides	-10.3277
▁tissue	-10.3278
ally	-10.3279
ta	-10.3279
▁26	-10.328
▁1997.	-10.3285
▁proper	-10.3287
▁evaluations	-10.3288
▁tumor	-10.3289
▁dean	-10.3297
▁randomized	-10.3299
▁modeled	-10.3303
be	-10.3306
▁coverage	-10.3307
▁correlations	-10.3312
▁accurately	-10.3312
▁viewed	-10.3315
▁bandit	-10.3321
▁zhao	-10.3324
▁summarized	-10.3328
▁closely	-10.3328
um	-10.3332
▁keywords	-10.334
▁2012	-10.3341
▁dependent	-10.3342
convex	-10.3343
▁descriptors	-10.3347
▁averaged	-10.3356
▁deng	-10.3356
▁23	-10.3364
▁relational	-10.3367
▁german	-10.337
▁configurations	-10.3371
bit	-10.3372
▁superior	-10.338
▁competition	-10.3391
▁modalities	-10.3393
▁regarding	-10.3395
▁linearly	-10.3399
▁expect	-10.3402
▁)]	-10.3405
▁31	-10.3409
▁verification	-10.3412
▁attempt	-10.3417
▁decay	-10.3427
▁explanations	-10.343
▁[14]	-10.3431
▁neighbor	-10.3438
▁han	-10.344
▁intrinsic	-10.3453
▁backward	-10.3455
▁decrease	-10.3457
▁security	-10.346
▁proved	-10.3473
▁choices	-10.3479
▁foundation	-10.348
▁algorithmic	-10.3488
▁correlated	-10.349
▁subsequent	-10.3495
▁interactive	-10.35
▁categorical	-10.351
▁shapes	-10.3511
▁scalar	-10.3513
▁satisfy	-10.3515
▁alexander	-10.3519
▁consequently	-10.3519
ent	-10.352
defined	-10.3535
▁representative	-10.3536
▁sensitivity	-10.3538
▁%	-10.3538
▁cover	-10.3551
such	-10.3558
te	-10.3562
▁outcome	-10.357
▁siam	-10.357
▁conduct	-10.3575
▁conclude	-10.3576
▁reasons	-10.359
▁matches	-10.3595
▁june	-10.3595
▁locally	-10.3596
▁agreement	-10.3605
quality	-10.3625
▁removing	-10.3629
▁affect	-10.3629
gp	-10.3631
▁faces	-10.3636
▁course	-10.3641
▁ball	-10.3646
▁formula	-10.3651
▁predictor	-10.3652
▁names	-10.3663
▁yann	-10.3678
▁assign	-10.3679
io	-10.3687
▁predicts	-10.3691
▁investigated	-10.3693
▁play	-10.37
0.	-10.3712
▁independence	-10.3726
ca	-10.3727
called	-10.3728
▁infinite	-10.373
▁emotion	-10.3735
▁sec	-10.3735
et	-10.3744
form	-10.3749
▁instructions	-10.3752
30	-10.3755
▁hypotheses	-10.3758
▁contained	-10.3761
▁approximations	-10.377
ac	-10.3776
▁quickly	-10.3777
▁ca	-10.3778
▁refers	-10.3786
▁qualitative	-10.3792
▁clean	-10.3796
▁meeting	-10.3796
▁mutual	-10.3801
▁parser	-10.3802
pp	-10.3807
▁nn	-10.3818
▁pdf	-10.3821
pooling	-10.3831
▁);	-10.3834
▁applicable	-10.3835
ne	-10.3837
ra	-10.3837
from	-10.3846
14	-10.3847
▁illustration	-10.3848
▁angle	-10.3849
9,	-10.3858
▁behind	-10.387
▁reliable	-10.387
▁creating	-10.387
▁products	-10.3876
speech	-10.3876
▁prevent	-10.3882
▁individuals	-10.3886
▁inception	-10.389
▁inc	-10.3895
▁objectives	-10.3897
▁stereo	-10.39
▁paragraph	-10.3917
▁wei	-10.3927
▁particle	-10.3943
▁captures	-10.3951
▁year	-10.3959
-2	-10.396
▁targets	-10.396
▁lexicon	-10.3963
▁helpful	-10.3966
▁mm	-10.397
▁conv	-10.398
▁guide	-10.3983
top	-10.3987
▁root	-10.3994
words	-10.4
▁annotators	-10.4004
▁calibration	-10.4009
co	-10.4016
▁involved	-10.4031
lin	-10.4037
▁perception	-10.404
▁feasible	-10.404
▁arguments	-10.4041
▁necessarily	-10.4059
▁reach	-10.4078
7,	-10.408
▁workers	-10.4081
▁ratings	-10.41
▁collaborative	-10.4104
▁oracle	-10.4104
▁isbn	-10.4119
▁amounts	-10.4121
0,	-10.4121
sp	-10.4123
▁multilingual	-10.4125
▁enhance	-10.4126
▁remote	-10.4135
1–	-10.4138
▁worse	-10.4145
▁momentum	-10.4154
▁robert	-10.4154
▁accuracies	-10.4155
ch	-10.4162
map	-10.4163
fei	-10.4164
▁adapted	-10.4167
▁crowd	-10.4168
▁management	-10.4172
▁onto	-10.4173
▁integral	-10.4175
▁xiao	-10.4176
▁rare	-10.4182
▁rating	-10.4183
min	-10.4189
▁double	-10.4206
ter	-10.4207
model	-10.4216
▁hashing	-10.4217
▁repeated	-10.4232
▁mnih	-10.4237
▁static	-10.424
▁attempts	-10.4257
▁liver	-10.4258
▁slow	-10.4264
▁costs	-10.427
▁essentially	-10.4275
▁transformed	-10.4277
▁vary	-10.4279
po	-10.4287
▁hessian	-10.429
50	-10.43
▁paradigm	-10.431
▁acl	-10.4311
▁frequent	-10.4312
▁pascal	-10.4313
text	-10.4319
output	-10.432
▁draw	-10.4327
▁price	-10.433
▁simpler	-10.4331
▁gate	-10.4343
▁applies	-10.437
▁indicator	-10.4388
hot	-10.439
▁plane	-10.4392
me	-10.4394
▁29	-10.4394
▁records	-10.4397
▁measuring	-10.4406
ci	-10.4408
▁changing	-10.4408
▁correspondence	-10.441
▁argue	-10.4419
▁conditioned	-10.4419
▁512	-10.4427
truth	-10.4429
▁captions	-10.4429
▁jordan	-10.443
▁trends	-10.4438
▁fraction	-10.4438
▁morphological	-10.4447
▁abbeel	-10.4449
▁briefly	-10.4451
▁é	-10.4454
18	-10.4463
▁align	-10.4464
▁lung	-10.4476
ant	-10.4476
▁allowed	-10.4479
▁comparisons	-10.4495
▁mikolov	-10.4495
▁fuzzy	-10.4508
▁biases	-10.4515
▁weighting	-10.4517
▁sufficiently	-10.452
▁lda	-10.452
▁anomaly	-10.4529
▁move	-10.4529
▁bottou	-10.4529
▁capturing	-10.4529
▁traffic	-10.4531
▁scans	-10.4538
so	-10.4541
▁simonyan	-10.455
▁indices	-10.4554
▁incremental	-10.4558
▁computes	-10.4561
▁formulated	-10.4561
▁1999.	-10.4562
▁saliency	-10.4565
▁utilized	-10.4568
▁respective	-10.4568
▁branch	-10.4572
▁team	-10.4572
mo	-10.4585
▁day	-10.4585
▁intuition	-10.4588
▁variability	-10.459
▁suggested	-10.4615
▁gene	-10.4616
▁tackle	-10.4618
▁illustrates	-10.4619
▁tang	-10.4622
▁obtaining	-10.4622
ke	-10.4622
▁arm	-10.4626
▁⊂	-10.4627
▁percentage	-10.4627
▁robotics	-10.463
▁situation	-10.4631
▁received	-10.4638
▁compressed	-10.4643
▁reports	-10.4643
é	-10.465
▁unfortunately	-10.4651
▁da	-10.4655
▁paul	-10.4672
>	-10.4676
▁updating	-10.4691
grams	-10.4695
▁multiplication	-10.4695
deep	-10.4695
▁ŷ	-10.4696
▁versions	-10.4697
svm	-10.47
▁naive	-10.4704
▁put	-10.4705
max	-10.4713
▁directed	-10.4716
▁definitions	-10.4725
▁analyzing	-10.4738
▁3)	-10.4739
▁gold	-10.4749
▁extreme	-10.4757
▁ii	-10.4759
▁eigenvalues	-10.4761
▁forecasting	-10.4768
sample	-10.4773
html	-10.4774
identification	-10.4783
α	-10.4783
▁distortion	-10.4791
▁detectors	-10.4792
▁proximal	-10.4794
▁performances	-10.4795
▁tr	-10.4797
ment	-10.4797
▁outside	-10.4808
not	-10.481
▁calculation	-10.4836
▁hierarchy	-10.4838
▁coarse	-10.4839
▁explained	-10.4839
▁roughly	-10.4848
▁hours	-10.4851
▁poisson	-10.486
▁advanced	-10.4862
am	-10.4864
▁focuses	-10.4864
sampling	-10.4865
▁union	-10.4875
▁reader	-10.4882
▁(2	-10.4883
ru	-10.4886
▁300	-10.489
▁virtual	-10.4893
▁masks	-10.49
▁cameras	-10.4901
▁designing	-10.4903
▁collect	-10.4909
▁projected	-10.4913
▁differ	-10.4915
crafted	-10.4917
▁spectrum	-10.4918
▁leveraging	-10.4918
▁feedforward	-10.4919
▁iteratively	-10.4924
▁stream	-10.4925
▁defines	-10.4938
▁suffer	-10.4938
ive	-10.4953
ling	-10.4961
▁approximated	-10.4978
▁par	-10.4983
▁den	-10.4988
▁height	-10.4994
pl	-10.5002
▁replacing	-10.5002
▁lesions	-10.5003
▁frequently	-10.5005
▁semeval	-10.5013
case	-10.5013
5.	-10.5018
▁pa	-10.5019
▁sometimes	-10.5031
▁fitting	-10.5033
▁stored	-10.5034
▁topology	-10.5044
▁1.1	-10.5049
▁fake	-10.505
li	-10.5053
▁(2015)	-10.5057
▁cycle	-10.507
ard	-10.5072
▁procedures	-10.508
type	-10.5085
▁supplementary	-10.5088
1-	-10.5088
▁gray	-10.509
▁induced	-10.5095
▁reconstructed	-10.5111
▁speakers	-10.5126
▁primary	-10.5129
ization	-10.5136
▁strength	-10.5137
▁zisserman	-10.515
▁extent	-10.515
▁christian	-10.515
▁actor	-10.5152
network	-10.5153
▁limitation	-10.5154
▁≈	-10.5161
▁string	-10.5168
▁foundations	-10.5176
▁hyperspectral	-10.5181
▁similarities	-10.5195
▁surrogate	-10.5196
▁informative	-10.5202
im	-10.5203
▁induction	-10.5221
▁summaries	-10.5236
▁heuristics	-10.525
▁8:	-10.5258
▁round	-10.5259
▁effort	-10.5261
▁stages	-10.5265
▁formulate	-10.527
▁indicating	-10.5271
ap	-10.5273
▁np	-10.5278
▁(2016)	-10.528
▁alternating	-10.5282
ur	-10.529
iii	-10.5292
▁0.5	-10.5304
▁maximization	-10.5308
▁period	-10.5313
▁check	-10.5318
▁consist	-10.532
optimal	-10.5321
prints	-10.5322
▁annals	-10.5322
▁grammar	-10.5326
▁60	-10.5335
▁recursive	-10.5341
iclr	-10.5344
▁auc	-10.5356
▁returns	-10.5361
▁precisely	-10.5368
▁smoothing	-10.5377
▁closer	-10.5379
▁assess	-10.5382
▁private	-10.5386
▁considers	-10.5387
▁34	-10.5388
▁behaviour	-10.539
▁read	-10.539
β	-10.5391
▁nonparametric	-10.5392
2.	-10.5394
▁yan	-10.5398
▁drop	-10.5401
▁insights	-10.5419
▁submission	-10.5423
▁acquired	-10.5424
▁learner	-10.5438
mann	-10.5458
ni	-10.5458
▁pretrained	-10.5463
▁stack	-10.5466
▁symbol	-10.5469
ε	-10.5471
▁graphics	-10.5483
↓	-10.5494
▁her	-10.5495
▁fergus	-10.5496
▁monolingual	-10.5498
length	-10.5502
▁passed	-10.5503
▁±	-10.551
▁involve	-10.5512
▁remain	-10.5516
▁biological	-10.5517
▁thesis	-10.5518
▁discourse	-10.552
▁assumes	-10.5521
▁socher	-10.5522
▁2011	-10.5522
▁vae	-10.5523
▁fail	-10.5535
▁reconstruct	-10.5537
32	-10.5546
ka	-10.5547
▁looking	-10.5551
▁man	-10.5552
▁toolkit	-10.5554
▁dong	-10.5559
▁verify	-10.556
▁labelled	-10.5561
lingual	-10.5562
▁movie	-10.5562
▁defining	-10.5566
▁se	-10.5571
▁implementations	-10.5572
▁symbols	-10.5582
▁wasserstein	-10.5596
bo	-10.5609
▁simulations	-10.5612
▁1995.	-10.5613
▁compositional	-10.5616
ability	-10.5618
▁firstly	-10.5621
▁6.	-10.5622
▁wierstra	-10.5631
▁darrell	-10.5632
▁[15]	-10.5633
▁conf	-10.5636
iv	-10.5644
▁estimators	-10.5653
▁device	-10.5665
▁parse	-10.5668
▁facilitate	-10.5669
ro	-10.5671
▁precise	-10.5673
▁cl	-10.5674
▁discrepancy	-10.5676
▁desirable	-10.5676
▁consecutive	-10.5684
▁submitted	-10.5684
▁vi	-10.5684
▁mapped	-10.5685
▁slice	-10.5689
ce	-10.5707
mm	-10.5708
▁net	-10.5711
per	-10.5717
ized	-10.5719
▁going	-10.5724
▁lstms	-10.5724
▁dynamical	-10.5724
▁verbs	-10.5727
100	-10.5731
▁perceptual	-10.5741
▁beginning	-10.5744
▁road	-10.5753
▁taylor	-10.576
▁purposes	-10.5765
▁optimum	-10.5766
▁consistently	-10.5773
nt	-10.5777
▁bold	-10.5778
▁visible	-10.5782
▁growing	-10.5789
▁mc	-10.5803
▁versus	-10.5806
▁recommender	-10.5813
▁validate	-10.5816
▁engine	-10.582
▁command	-10.5827
▁store	-10.5829
▁jian	-10.583
▁perceptron	-10.5836
da	-10.5853
11	-10.5853
▁affine	-10.5858
▁solver	-10.5866
▁semantically	-10.5867
▁aaron	-10.5867
learn	-10.5873
age	-10.588
▁utilizing	-10.588
▁middle	-10.5884
red	-10.5886
▁volumes	-10.5886
–1	-10.5888
▁belong	-10.5894
▁exploring	-10.5895
▁der	-10.5896
▁bert	-10.5898
▁comprehensive	-10.5901
▁spatio	-10.5901
▁begin	-10.5904
φ	-10.5912
bi	-10.5915
sa	-10.5917
▁constructing	-10.5917
▁intersection	-10.5921
▁demonstrates	-10.5924
▁stationary	-10.5937
▁runtime	-10.5937
▁wavelet	-10.5938
▁imagery	-10.5938
▁axis	-10.5938
▁translate	-10.5945
over	-10.5948
▁regularizer	-10.5948
▁situations	-10.5949
▁complicated	-10.595
▁processed	-10.5952
64	-10.5958
py	-10.5959
efficient	-10.5972
▁ghahramani	-10.5973
▁ffrst	-10.5973
▁closest	-10.5999
▁proposals	-10.6004
▁jan	-10.6018
▁visually	-10.6026
where	-10.6029
▁projections	-10.603
▁preserving	-10.6039
++	-10.604
distribution	-10.6042
ting	-10.6045
1.	-10.6048
▁proven	-10.6049
▁1992.	-10.605
▁digits	-10.6052
live	-10.6056
▁satellite	-10.6057
▁simplified	-10.6058
▁messages	-10.6062
▁efforts	-10.6062
▁describing	-10.6066
cnns	-10.6073
▁pr	-10.6077
edu	-10.6082
occurrence	-10.6093
▁weakly	-10.6093
mi	-10.6095
▁zheng	-10.6096
▁matthew	-10.6096
▁ordering	-10.6101
▁cpu	-10.6104
▁requiring	-10.6113
▁server	-10.6116
▁classifying	-10.6122
▁les	-10.6125
▁entry	-10.6141
▁modification	-10.6144
▁dice	-10.6147
▁parametric	-10.6149
▁(0)	-10.6153
▁lipschitz	-10.6154
▁bandits	-10.6156
▁derivatives	-10.6171
▁logical	-10.6172
▁addressed	-10.6174
▁sketch	-10.6176
▁33	-10.6178
▁singh	-10.6184
▁minima	-10.6202
▁scratch	-10.6207
▁involving	-10.6207
parameterization	-10.6218
▁demand	-10.6219
▁′′	-10.6221
▁service	-10.6232
▁summarize	-10.6238
▁proposes	-10.6245
▁ijcai	-10.6245
▁captioning	-10.6248
▁law	-10.6248
▁don	-10.6249
▁heart	-10.6249
▁sutton	-10.6255
▁ensembles	-10.6258
▁colour	-10.6268
▁headings	-10.6278
non	-10.6278
▁producing	-10.6279
▁occurs	-10.6287
▁sa	-10.6288
▁mentions	-10.631
▁cut	-10.6317
related	-10.6318
field	-10.633
▁worst	-10.633
▁fair	-10.6331
lm	-10.6331
▁electronic	-10.6335
▁causes	-10.6336
▁former	-10.6338
▁td	-10.6341
▁claim	-10.6343
8.	-10.6344
▁kinds	-10.6346
▁unbiased	-10.6347
▁medicine	-10.6354
▁frequencies	-10.6358
product	-10.6361
9–	-10.6364
▁writing	-10.6366
▁nevertheless	-10.6375
▁links	-10.6379
first	-10.6383
log	-10.6384
▁acceleration	-10.6386
▁lie	-10.6386
▁transitions	-10.6386
▁parameterized	-10.6391
▁drug	-10.6397
▁activities	-10.6399
▁internet	-10.6403
▁qa	-10.6404
▁ian	-10.6406
▁∪	-10.6407
best	-10.6419
ma	-10.6422
▁storage	-10.6423
▁balanced	-10.6432
▁fei	-10.6433
cl	-10.6434
only	-10.6435
▁dnns	-10.6437
▁res	-10.6443
▁huge	-10.6448
▁2010	-10.6448
▁allocation	-10.6449
▁interpreted	-10.645
▁outcomes	-10.6452
▁decreases	-10.6453
▁squares	-10.6464
▁comprehension	-10.6475
▁balance	-10.6479
▁§	-10.648
crf	-10.6481
▁median	-10.6485
▁alone	-10.6491
▁starts	-10.65
▁driving	-10.6506
▁modality	-10.6506
▁interpret	-10.6513
▁vehicle	-10.6514
δ	-10.6514
▁syntax	-10.6519
▁girshick	-10.6521
▁asr	-10.6522
▁website	-10.653
ie	-10.6536
ia	-10.6549
γ	-10.6549
▁proportion	-10.6551
▁minimizes	-10.6554
relu	-10.656
▁held	-10.6562
ier	-10.6563
this	-10.6566
▁loop	-10.657
▁ranked	-10.6572
▁1996.	-10.6578
▁invariance	-10.658
▁nor	-10.658
▁recorded	-10.6581
▁laplacian	-10.6583
▁player	-10.6584
ha	-10.6587
▁aforementioned	-10.6594
▁downstream	-10.6595
▁databases	-10.6598
▁incorrect	-10.6598
▁var	-10.6601
▁chris	-10.6601
▁confirm	-10.6602
▁poses	-10.6605
▁thanks	-10.6605
▁treat	-10.6611
▁express	-10.6613
▁exhibit	-10.6617
▁gaze	-10.6618
▁sigkdd	-10.6619
▁ten	-10.6621
mp	-10.6624
▁recognize	-10.6627
▁degrees	-10.6632
▁williams	-10.6633
▁passage	-10.6636
graph	-10.6636
▁9:	-10.664
▁intuitive	-10.6641
▁intervals	-10.6641
▁possibility	-10.6641
▁doing	-10.6643
▁lawrence	-10.6644
▁mohamed	-10.6644
▁monitoring	-10.6645
▁parent	-10.666
▁plots	-10.6663
▁shen	-10.6666
sgd	-10.6674
na	-10.668
▁complementary	-10.6686
do	-10.6693
▁manning	-10.6694
ts	-10.6696
▁chang	-10.6701
<	-10.6704
▁histogram	-10.6704
▁lists	-10.6706
▁overlapping	-10.6709
▁serve	-10.671
est	-10.6714
ton	-10.6716
▁approximating	-10.6718
▁limits	-10.6725
.1109	-10.6727
▁gated	-10.6732
▁moment	-10.6733
▁artifacts	-10.6737
▁budget	-10.6738
english	-10.6743
▁protocol	-10.6743
ns	-10.6753
go	-10.6756
▁establish	-10.6758
▁caused	-10.6762
▁classic	-10.6764
▁execution	-10.6765
frequency	-10.6766
▁principles	-10.6768
▁trainable	-10.6776
▁increasingly	-10.6778
▁tries	-10.678
25	-10.679
▁discussions	-10.6794
▁layout	-10.6804
▁kai	-10.6806
▁analyzed	-10.6823
▁leave	-10.683
train	-10.6839
▁ny	-10.6843
ov	-10.6845
▁treated	-10.6847
|	-10.6857
▁larochelle	-10.6869
▁operating	-10.6869
▁date	-10.6872
▁crf	-10.6874
▁counts	-10.688
independent	-10.6893
9.	-10.6894
▁oriol	-10.6895
▁voice	-10.6901
▁thereby	-10.6909
▁breast	-10.6911
▁initially	-10.6912
▁slices	-10.6915
▁findings	-10.6921
▁intuitively	-10.6923
▁fix	-10.6931
▁examine	-10.6936
▁frameworks	-10.6937
▁fisher	-10.6944
▁converted	-10.6948
our	-10.695
▁never	-10.6951
▁null	-10.6955
cc	-10.6957
▁math	-10.6957
▁sl	-10.6962
tr	-10.6967
▁derivation	-10.697
▁preserve	-10.6971
▁transforms	-10.6974
▁centered	-10.6976
▁greatly	-10.6976
mer	-10.6977
▁giving	-10.6977
ve	-10.6998
▁nearly	-10.7001
▁copy	-10.7007
▁belongs	-10.7016
▁mr	-10.702
sen	-10.7028
▁keeping	-10.703
▁10%	-10.7032
▁encodes	-10.7034
▁macro	-10.7046
axis	-10.7047
▁communities	-10.7048
▁calculating	-10.7048
▁boltzmann	-10.7048
▁∙	-10.7054
▁possibly	-10.7057
▁established	-10.7058
▁gpus	-10.7063
▁cumulative	-10.7072
ba	-10.7072
▁shallow	-10.7074
▁inferred	-10.7074
▁gps	-10.7077
▁equally	-10.7084
^	-10.7086
▁kumar	-10.7091
di	-10.7095
qa	-10.7097
▁ideal	-10.7097
▁july	-10.7098
▁statement	-10.7098
▁marc	-10.7101
▁nvidia	-10.7117
▁enhancement	-10.7118
that	-10.7121
▁translated	-10.7125
tuned	-10.7129
▁belonging	-10.7131
▁wordnet	-10.7148
▁predictors	-10.7157
are	-10.716
▁maintain	-10.7162
▁stop	-10.7163
▁80	-10.7165
09	-10.7167
▁facts	-10.7171
▁gets	-10.7176
▁∂	-10.7176
▁canonical	-10.7178
▁confusion	-10.7178
▁offline	-10.718
▁levine	-10.718
▁subsequently	-10.7182
si	-10.7183
▁micro	-10.7184
13	-10.7194
▁johnson	-10.7203
▁carried	-10.7204
▁mirza	-10.7204
▁controlled	-10.7216
▁pool	-10.7216
▁modify	-10.7226
▁illumination	-10.7231
▁blind	-10.7231
ll	-10.7232
01	-10.7245
▁intra	-10.7252
▁gains	-10.7254
om	-10.7256
▁safety	-10.7257
▁technologies	-10.7257
mean	-10.7282
ted	-10.729
▁ben	-10.7291
▁goals	-10.7293
▁ordered	-10.7302
▁35	-10.7304
▁visualizing	-10.7306
vae	-10.7308
▁arg	-10.7311
▁spoken	-10.732
▁000	-10.732
▁seconds	-10.7328
▁financial	-10.7336
▁mar	-10.7347
▁transformer	-10.7356
ary	-10.7369
state	-10.737
▁bits	-10.7371
▁liang	-10.7371
ti	-10.7377
ul	-10.7378
down	-10.7386
▁removal	-10.739
▁integrate	-10.7399
▁proportional	-10.74
▁obvious	-10.7401
▁pyramid	-10.7407
hard	-10.7408
▁noted	-10.7412
ek	-10.7413
▁repository	-10.7416
ps	-10.7416
▁riemannian	-10.7416
▁horizontal	-10.7424
▁receptive	-10.7441
▁bases	-10.7457
▁forests	-10.7458
▁diseases	-10.7465
▁jun	-10.7474
▁int	-10.7474
▁options	-10.7481
▁fc	-10.7482
▁characteristic	-10.7487
ri	-10.7488
▁toward	-10.7491
▁editors	-10.7498
▁think	-10.7519
mc	-10.7522
invariant	-10.7522
▁diederik	-10.7524
▁fairness	-10.7525
▁bilingual	-10.7525
▁handling	-10.7526
▁substantially	-10.7526
▁valuable	-10.7528
ry	-10.7529
▁away	-10.753
▁(2017)	-10.7531
▁outliers	-10.7534
▁combinatorial	-10.7536
▁permutation	-10.7538
▁failure	-10.7538
▁scaled	-10.754
▁intractable	-10.7555
7.	-10.7555
▁lm	-10.7567
].	-10.7567
▁orientation	-10.7571
lo	-10.7577
▁tractable	-10.7578
▁determining	-10.7579
▁controls	-10.7579
▁characterize	-10.7581
▁released	-10.7588
▁strictly	-10.759
▁90	-10.7593
▁vqa	-10.7594
▁coherence	-10.7594
▁extensions	-10.7599
▁hochreiter	-10.7605
▁smallest	-10.7609
▁market	-10.7613
▁sequentially	-10.7616
▁temperature	-10.7617
▁services	-10.7625
▁paired	-10.7625
▁jonathan	-10.7633
▁berlin	-10.7636
▁she	-10.764
pr	-10.7644
▁existence	-10.765
▁ontology	-10.766
▁rectified	-10.7662
▁distillation	-10.7662
▁gao	-10.7665
▁smith	-10.7683
▁substantial	-10.7685
▁signature	-10.7688
▁placed	-10.7692
▁bad	-10.7708
▁seem	-10.7711
▁numerous	-10.7715
▁noun	-10.7715
▁stance	-10.7716
▁handwritten	-10.7716
▁discover	-10.7717
▁decide	-10.7718
▁extends	-10.7722
▁voxel	-10.7725
▁listed	-10.7729
▁mlp	-10.7739
(6):	-10.7739
▁replay	-10.7744
▁[16]	-10.7746
▁36	-10.7751
▁colors	-10.7753
▁hope	-10.7757
idf	-10.7757
▁reflect	-10.7758
▁accordingly	-10.7762
▁book	-10.7762
▁production	-10.7783
▁biased	-10.7784
▁regime	-10.7786
▁largely	-10.7788
ol	-10.7797
▁slot	-10.7801
04	-10.7805
▁partitions	-10.7807
▁2019.	-10.7811
▁depicted	-10.7812
▁lr	-10.7816
▁tf	-10.7819
▁splitting	-10.7829
▁communications	-10.7831
▁requirement	-10.7839
▁2.4	-10.7841
▁microsoft	-10.7843
▁stanford	-10.7851
▁life	-10.7853
▁capability	-10.7854
▁corrado	-10.7854
▁turns	-10.7856
▁bilinear	-10.7862
directional	-10.7868
▁lies	-10.7872
▁(2014)	-10.7873
af	-10.7876
▁membership	-10.7879
▁capabilities	-10.7882
▁sophisticated	-10.7882
▁george	-10.7884
▁offers	-10.7892
▁walk	-10.7896
▁consequence	-10.7898
▁led	-10.7899
▁70	-10.7902
ina	-10.7908
▁mach	-10.7912
series	-10.7914
▁plays	-10.7918
▁equality	-10.7934
▁matched	-10.7935
▁frank	-10.7935
encoding	-10.7935
▁decreasing	-10.794
▁categorization	-10.7941
▁equivalence	-10.7943
▁jean	-10.7943
▁san	-10.7949
▁separable	-10.7951
▁insight	-10.7951
▁tuned	-10.7952
▁treebank	-10.7953
vi	-10.7954
▁vanishing	-10.796
▁business	-10.7965
▁quantity	-10.7967
▁tiny	-10.7967
▁conditioning	-10.7969
▁corollary	-10.7977
▁jason	-10.7995
▁trend	-10.7997
lu	-10.8001
▁jmlr	-10.8011
-3	-10.8012
loss	-10.8015
▁safe	-10.8035
han	-10.8037
00	-10.8039
▁relaxation	-10.804
▁eigenvalue	-10.8041
▁pick	-10.8043
▁symmetry	-10.8044
▁descriptor	-10.8045
▁option	-10.8051
▁seek	-10.8052
ga	-10.8054
cf	-10.8057
parametric	-10.8059
▁acoustics	-10.807
▁importantly	-10.8079
▁plus	-10.8091
▁ensures	-10.8092
▁dealing	-10.8092
▁chose	-10.81
▁story	-10.8103
ber	-10.8103
▁ruslan	-10.8109
sum	-10.8122
▁portion	-10.8127
▁hmm	-10.8132
sc	-10.8138
▁1994.	-10.8138
▁days	-10.814
▁adjacent	-10.8144
▁remark	-10.8146
▁highlight	-10.815
▁id	-10.8164
propagation	-10.8165
▁proofs	-10.8167
▁scan	-10.8168
▁stronger	-10.8174
▁(4)	-10.8177
▁encourage	-10.8177
ab	-10.8177
▁37	-10.8179
▁pure	-10.818
▁front	-10.8196
▁aggregate	-10.8196
▁carry	-10.8196
▁separated	-10.8197
▁stride	-10.82
▁maximal	-10.8205
▁phd	-10.8205
▁associates	-10.8213
▁old	-10.8214
▁changed	-10.8215
▁iccv	-10.8216
gans	-10.8223
▁expressive	-10.8224
▁personal	-10.8225
▁implicitly	-10.823
▁symbolic	-10.8233
▁perfect	-10.8234
▁digit	-10.8235
▁lowest	-10.824
▁leaf	-10.824
▁hash	-10.8242
▁institute	-10.8243
▁optimality	-10.8246
▁zaremba	-10.8254
▁dan	-10.8255
▁else	-10.8255
▁addresses	-10.8262
▁divide	-10.8262
target	-10.8264
▁bio	-10.8267
mr	-10.8267
▁srivastava	-10.8274
▁modifications	-10.8274
▁asymptotic	-10.8288
ds	-10.8289
▁alexnet	-10.8291
▁receives	-10.8292
▁mdp	-10.8301
▁guo	-10.8302
▁lecture	-10.8307
he	-10.8308
▁episode	-10.831
▁windows	-10.8314
▁positives	-10.8315
▁autoregressive	-10.8323
▁integrating	-10.8341
▁smoothness	-10.8342
-5	-10.8345
▁photo	-10.8352
▁ambiguity	-10.8366
precision	-10.8368
▁food	-10.8368
▁usual	-10.8369
▁investigation	-10.8369
▁jeffrey	-10.8371
▁outlier	-10.8371
▁immediately	-10.8372
▁tried	-10.8376
farley	-10.84
▁11:	-10.8403
▁edit	-10.8409
▁vertical	-10.8415
▁contour	-10.8416
▁foreground	-10.8418
▁font	-10.8419
▁connectivity	-10.8425
ou	-10.8426
▁alleviate	-10.8428
▁splits	-10.8429
▁maintaining	-10.8435
weighted	-10.8435
▁coco	-10.8437
▁movement	-10.8438
▁ryan	-10.8442
▁brief	-10.8446
▁roc	-10.8451
▁contact	-10.8459
▁warde	-10.846
▁carefully	-10.8461
40	-10.8464
▁reached	-10.8464
▁marked	-10.8466
▁convert	-10.8473
▁rapid	-10.848
▁themselves	-10.848
▁publication	-10.848
▁matter	-10.8484
▁biology	-10.8489
▁theoretically	-10.8491
channel	-10.8494
▁wiley	-10.8507
▁diagram	-10.8509
▁10:	-10.8509
▁robots	-10.8518
▁analogy	-10.852
▁ms	-10.8521
cm	-10.8542
▁none	-10.8545
▁alignments	-10.8548
▁chemical	-10.8548
▁schulman	-10.8549
▁trace	-10.8552
au	-10.8552
▁asked	-10.8552
▁overhead	-10.8554
▁pan	-10.8555
2016	-10.8559
▁acts	-10.8564
▁ram	-10.8565
▁2009	-10.8568
ob	-10.8572
▁incomplete	-10.8572
▁french	-10.8573
▁1.2	-10.8574
▁quantify	-10.8575
▁ranging	-10.8579
▁systematic	-10.858
▁display	-10.8581
ev	-10.8592
!	-10.8598
pixel	-10.8601
encoder	-10.8603
▁inherent	-10.8607
▁students	-10.8607
▁beneficial	-10.8609
▁enabling	-10.8609
▁turing	-10.8623
▁submodular	-10.8624
▁record	-10.8629
▁eric	-10.8634
▁phenomenon	-10.864
language	-10.8644
se	-10.8646
action	-10.8652
▁ha	-10.8653
▁concentration	-10.8659
▁specify	-10.8665
▁molecular	-10.867
▁industrial	-10.867
▁primarily	-10.867
'	-10.8673
▁selects	-10.8681
▁trust	-10.8681
▁creation	-10.8681
▁thresholding	-10.8689
using	-10.8691
37	-10.8691
▁tensors	-10.8691
lda	-10.8692
rf	-10.8692
08	-10.8699
▁considerable	-10.8709
05	-10.8711
object	-10.8714
ko	-10.8717
▁citation	-10.8718
▁schema	-10.8726
▁accelerated	-10.8728
▁nguyen	-10.8731
▁bar	-10.8731
▁absence	-10.8732
▁daily	-10.8733
▁tanh	-10.8733
▁profile	-10.8744
▁extending	-10.8745
80	-10.8746
▁mse	-10.8749
▁fails	-10.8755
▁receive	-10.8758
▁offer	-10.876
▁shi	-10.876
▁truncated	-10.8763
▁neighboring	-10.8769
▁sure	-10.877
▁inequalities	-10.877
▁fall	-10.8773
online	-10.8774
07	-10.8778
▁concatenate	-10.878
ct	-10.8781
▁usr	-10.8786
▁cardiac	-10.8792
▁keras	-10.8792
▁0.1	-10.8795
▁originally	-10.8798
sensitive	-10.8805
03	-10.8812
▁atoms	-10.882
▁adversary	-10.8823
▁rouge	-10.8823
▁popularity	-10.8825
▁nonconvex	-10.8845
res	-10.8845
▁conversion	-10.8846
▁coherent	-10.8849
▁weinberger	-10.8853
▁opinion	-10.8856
structured	-10.8858
sh	-10.887
▁repeat	-10.8877
▁davis	-10.8883
▁tex	-10.8886
▁generality	-10.889
volume	-10.8893
▁room	-10.8896
▁availability	-10.8899
▁2.5	-10.8907
▁spanish	-10.8908
▁dot	-10.8913
▁chi	-10.8916
▁primal	-10.8918
▁comput	-10.8921
▁characterized	-10.8931
sr	-10.8934
▁arabic	-10.8937
ize	-10.8939
▁cues	-10.8942
▁mind	-10.8951
▁jeff	-10.8951
▁searching	-10.8953
▁partitioning	-10.8958
ten	-10.8959
critic	-10.8963
▁mixing	-10.897
ho	-10.8977
▁erhan	-10.8978
▁10.114	-10.8981
▁eigenvectors	-10.8984
▁wrong	-10.8986
▁3.4	-10.8993
▁survival	-10.8996
▁moments	-10.8997
▁(2017).	-10.9001
▁consideration	-10.9007
▁explaining	-10.9009
▁array	-10.9014
▁neither	-10.9015
▁secondly	-10.9026
▁roi	-10.9028
2)	-10.9033
▁asynchronous	-10.904
▁copies	-10.9041
▁abstraction	-10.9046
▁targeted	-10.9046
▁intervention	-10.9052
▁personalized	-10.9055
▁seed	-10.9059
▁diagnostic	-10.9064
rt	-10.9068
–4	-10.9071
▁discrimination	-10.9072
▁shlens	-10.9072
▁dr	-10.9074
▁replacement	-10.9074
▁said	-10.908
▁urban	-10.9082
fi	-10.9084
24	-10.9099
▁minibatch	-10.9104
▁heavily	-10.9104
▁flows	-10.9104
ft	-10.9113
▁passing	-10.912
▁thousands	-10.912
▁templates	-10.9122
side	-10.9123
hand	-10.9126
style	-10.9126
▁materials	-10.913
▁simon	-10.9131
▁employs	-10.9131
▁pascanu	-10.9136
▁vanhoucke	-10.9136
▁koray	-10.9136
▁blei	-10.9139
▁custom	-10.9141
▁smt	-10.9149
▁wild	-10.9157
▁fourth	-10.916
▁differs	-10.9166
nlp	-10.9166
▁accepted	-10.9166
▁located	-10.9167
▁exponentially	-10.9175
▁api	-10.9177
▁scope	-10.9178
information	-10.9182
▁multiclass	-10.9187
▁broad	-10.9189
▁opt	-10.9192
▁projects	-10.9196
▁multinomial	-10.9204
▁48	-10.9207
▁tangent	-10.921
▁01	-10.9211
▁seq	-10.9214
op	-10.9217
▁properly	-10.9236
▁focusing	-10.9237
▁growth	-10.9241
▁park	-10.9248
▁gu	-10.9251
20	-10.9256
▁finds	-10.9257
▁utilizes	-10.9263
▁significance	-10.9264
▁bn	-10.9267
▁preference	-10.9268
▁nicolas	-10.927
▁defense	-10.9283
tends	-10.9287
▁december	-10.9291
▁lillicrap	-10.9296
19	-10.9297
▁adams	-10.9299
▁greg	-10.93
▁landmarks	-10.9302
▁picture	-10.9303
▁william	-10.9304
▁preferences	-10.9307
▁cohen	-10.9308
▁city	-10.9309
▁=0	-10.9315
▁guaranteed	-10.932
▁ge	-10.9322
▁velocity	-10.9326
▁flexibility	-10.9328
▁stephen	-10.9329
▁cheng	-10.933
▁4.3	-10.9334
conv	-10.9336
▁manifolds	-10.9339
▁2.1.	-10.934
▁march	-10.9354
▁redundant	-10.9355
▁dec	-10.9356
▁screening	-10.9364
▁predefined	-10.9365
sparse	-10.9372
▁retrieved	-10.9382
doi	-10.9383
▁worker	-10.9383
▁imbalance	-10.9398
▁dl	-10.9398
divergence	-10.9402
▁chapter	-10.941
▁emnlp	-10.9416
▁satisfying	-10.9422
ge	-10.9428
gaussian	-10.9431
ig	-10.9436
oriented	-10.9439
▁notations	-10.9458
▁zemel	-10.9459
▁kevin	-10.9459
each	-10.9459
▁conversational	-10.9461
ari	-10.9465
low	-10.9471
▁subspaces	-10.9473
ger	-10.9476
ker	-10.9481
▁voting	-10.9481
▁spread	-10.9483
▁occlusion	-10.9485
▁jimmy	-10.9492
▁extractor	-10.9493
▁tim	-10.95
▁triplet	-10.9503
▁employing	-10.9506
▁segmented	-10.951
▁ir	-10.9521
26	-10.9522
▁accelerating	-10.9525
▁charles	-10.9526
▁supports	-10.9532
21	-10.9534
▁2016,	-10.9542
▁platforms	-10.9544
▁protein	-10.9546
▁guided	-10.9552
mar	-10.9553
▁preparation	-10.9558
▁organization	-10.9558
▁tracks	-10.9559
▁(“	-10.9562
lt	-10.9565
▁jiang	-10.9568
▁contribute	-10.9572
▁bandwidth	-10.9578
↑	-10.9591
ff	-10.9593
@@	-10.9597
▁7.	-10.9601
▁vanilla	-10.9609
▁jin	-10.9609
▁determines	-10.9609
▁streams	-10.9614
▁session	-10.9618
▁radford	-10.9624
▁opposed	-10.9624
▁[1	-10.9638
fc	-10.9643
▁orders	-10.9649
▁centroid	-10.9651
land	-10.9654
▁official	-10.9655
▁tomas	-10.9657
▁spans	-10.966
▁lengths	-10.9663
▁formed	-10.9664
consuming	-10.9666
▁boost	-10.9673
▁nouns	-10.9674
▁coupled	-10.9676
▁wish	-10.9682
▁players	-10.9691
▁phenomena	-10.9691
▁volumetric	-10.9691
▁plausible	-10.9692
ip	-10.9701
▁learnt	-10.9704
▁maximizes	-10.9707
▁cat	-10.9712
▁enhanced	-10.9722
▁trick	-10.9724
▁texmf	-10.9725
sne	-10.974
▁yi	-10.9743
▁retrieve	-10.9747
▁algebra	-10.9747
ex	-10.975
▁eigenvector	-10.9753
izing	-10.9755
▁matlab	-10.9759
2017	-10.9763
dl	-10.9766
▁apart	-10.9768
▁fcn	-10.9768
ate	-10.977
▁eccv	-10.9775
▁landmark	-10.9776
▁sch	-10.978
▁augment	-10.9786
▁covariate	-10.9787
▁keypoints	-10.9788
▁svd	-10.979
▁refinement	-10.9792
but	-10.9792
▁children	-10.9793
▁statistically	-10.9823
▁distant	-10.9824
▁transport	-10.9826
▁lncs	-10.9827
▁reaches	-10.9829
.1007	-10.9834
stream	-10.9835
mt	-10.9835
ls	-10.9836
▁playing	-10.9837
▁constants	-10.9844
▁clouds	-10.9844
squares	-10.9845
▁compares	-10.9845
pt	-10.9846
▁concrete	-10.985
ance	-10.9855
lan	-10.9857
▁annotate	-10.9859
bottom	-10.9867
▁bernoulli	-10.9879
wei	-10.988
▁stands	-10.9881
▁ho	-10.9881
▁salient	-10.9882
28	-10.9884
▁multimedia	-10.9896
▁20%	-10.9901
▁extensively	-10.9902
▁gibbs	-10.9903
use	-10.9914
▁mel	-10.9926
bound	-10.9927
▁dai	-10.9928
▁status	-10.9932
▁worth	-10.9933
▁dx	-10.9938
▁proxy	-10.9947
▁⊗	-10.9948
▁understood	-10.9953
▁release	-10.9953
random	-10.9957
▁sr	-10.9957
▁ran	-10.9958
▁mixtures	-10.996
▁contents	-10.9963
▁150	-10.9963
▁impressive	-10.9964
▁curran	-10.9964
▁weston	-10.9965
ty	-10.9965
▁sergey	-10.9965
▁click	-10.9967
▁goes	-10.997
▁stated	-10.9973
▁interestingly	-10.9974
500	-10.9975
▁eight	-10.9985
9–1	-10.9987
▁child	-10.9991
▁stopping	-10.9993
▁rob	-10.9993
▁discovered	-10.9995
–18	-10.9997
▁scalability	-10.9998
▁yuan	-10.9999
▁[17]	-11.0002
▁consensus	-11.0004
▁phoneme	-11.0006
que	-11.0006
2015	-11.0008
▁exploits	-11.0012
▁sent	-11.0016
▁analyses	-11.002
ham	-11.0025
▁manipulation	-11.0033
▁kept	-11.0033
▁chest	-11.0034
▁unconstrained	-11.0034
ja	-11.0035
▁ask	-11.0036
▁edition	-11.0039
che	-11.0051
▁operate	-11.0051
objective	-11.0061
ak	-11.0066
▁historical	-11.0066
▁behaviors	-11.0066
▁boolean	-11.007
ine	-11.0071
▁radius	-11.0076
▁counting	-11.0081
▁1993.	-11.0081
document	-11.0083
▁aggregated	-11.0083
▁à	-11.0089
▁force	-11.0094
▁curvature	-11.0095
yan	-11.0099
acm	-11.01
▁comparative	-11.01
ron	-11.0103
standard	-11.0107
▁amazon	-11.0116
code	-11.0128
▁august	-11.013
theoretic	-11.0137
▁wiki	-11.0138
▁credit	-11.014
▁branches	-11.0141
hi	-11.0147
▁trying	-11.0149
▁resulted	-11.0157
▁builds	-11.0158
db	-11.0159
▁regardless	-11.016
▁serves	-11.0162
▁0)	-11.0163
▁comment	-11.0163
kin	-11.0164
▁china	-11.0168
▁surrounding	-11.0168
generated	-11.0173
▁classiffcation	-11.0174
▁pytorch	-11.0195
▁members	-11.0196
▁uncertain	-11.0203
▁mutation	-11.0204
▁modes	-11.0205
cut	-11.0207
▁fan	-11.021
▁irrelevant	-11.0211
▁rise	-11.0211
▁inductive	-11.0219
▁citations	-11.022
ib	-11.022
▁enforce	-11.0226
▁academic	-11.023
▁rf	-11.0232
▁mcmc	-11.0236
va	-11.0236
▁bach	-11.0239
▁dictionaries	-11.0244
▁took	-11.0256
▁alternatively	-11.0256
▁multilayer	-11.0257
▁nuclear	-11.0261
ley	-11.0263
also	-11.0264
06	-11.0264
2%	-11.0277
▁perplexity	-11.028
▁quantities	-11.028
▁(2015).	-11.0294
▁mis	-11.0302
pca	-11.0316
▁subjective	-11.0317
▁fitness	-11.0317
▁tan	-11.032
▁visualize	-11.0321
▁ln	-11.0324
▁vehicles	-11.0338
▁retain	-11.0344
▁kyunghyun	-11.0351
▁impossible	-11.0351
▁solely	-11.0352
▁coreference	-11.0352
▁subsection	-11.0353
▁shall	-11.0358
▁synthesized	-11.036
▁minutes	-11.0363
▁thought	-11.0366
▁sharp	-11.0368
▁disjoint	-11.0373
▁ease	-11.0375
▁solvers	-11.0381
12	-11.0382
▁rezende	-11.0387
▁consumption	-11.0387
▁app	-11.0391
▁guidelines	-11.0392
making	-11.0395
pi	-11.0396
▁water	-11.0397
▁mappings	-11.0399
▁sift	-11.0399
▁accessed	-11.0404
▁ann	-11.0405
▁experimented	-11.0414
▁zq	-11.0418
▁affinity	-11.0423
▁gupta	-11.0423
▁45	-11.0436
▁densely	-11.0437
int	-11.0445
”)	-11.0446
▁smola	-11.046
▁piecewise	-11.0461
▁norms	-11.0462
▁forgetting	-11.0462
▁recommendations	-11.0464
sl	-11.0468
-4	-11.0471
▁(2014).	-11.0472
▁skeleton	-11.0483
▁elastic	-11.0487
▁quoc	-11.0497
(4)	-11.0497
▁im	-11.0499
▁empty	-11.05
ya	-11.0517
▁spherical	-11.0518
ω	-11.052
pc	-11.0522
▁navigation	-11.0522
▁globally	-11.0524
multi	-11.0529
▁patrick	-11.0532
▁probably	-11.0533
▁correspondences	-11.0533
▁origin	-11.0534
▁varies	-11.0535
▁exploited	-11.0542
▁schedule	-11.0547
▁mesh	-11.0547
noise	-11.0551
▁analytic	-11.0558
μ	-11.0562
▁eigen	-11.0563
▁perhaps	-11.0563
▁proximity	-11.0563
▁chintala	-11.0569
▁remainder	-11.0569
▁merge	-11.0572
range	-11.0576
eq	-11.0578
▁comprises	-11.0581
▁minimized	-11.0581
▁lattice	-11.0594
▁peak	-11.0596
▁est	-11.0598
▁phases	-11.0603
▁doesn	-11.0604
uk	-11.0608
armed	-11.0611
rate	-11.0616
tree	-11.0621
86	-11.0631
▁tutorial	-11.0639
▁∩	-11.064
▁magnetic	-11.0641
▁sebastian	-11.0643
▁books	-11.0643
hl	-11.0647
▁emotions	-11.0649
▁@	-11.0658
▁andreas	-11.0663
▁simulate	-11.0667
▁homogeneous	-11.0667
▁dilated	-11.0668
▁grows	-11.0672
▁email	-11.0682
▁↓	-11.0686
▁outperformed	-11.0688
abadi	-11.0691
▁posts	-11.0693
person	-11.0695
▁voxels	-11.0697
▁roles	-11.071
▁simulator	-11.0714
▁(2016).	-11.0716
▁trevor	-11.0717
▁siamese	-11.0717
▁moore	-11.0719
▁connecting	-11.0721
▁poorly	-11.0723
gen	-11.0726
car	-11.0728
context	-11.0732
▁novelty	-11.0736
▁simplify	-11.0738
▁pet	-11.0743
▁spatially	-11.0743
▁benchmarking	-11.0744
▁arise	-11.0744
tic	-11.0746
▁teh	-11.0747
▁probe	-11.075
▁incorporated	-11.0754
▁murray	-11.0754
▁whenever	-11.0757
▁interact	-11.0763
▁50%	-11.0772
▁smart	-11.0773
▁asymmetric	-11.0778
ash	-11.0782
▁annotator	-11.0783
encoders	-11.0787
more	-11.0789
▁deformation	-11.0789
▁riedmiller	-11.0792
▁→∞	-11.0792
▁difficulties	-11.0793
▁obviously	-11.0795
▁observable	-11.0801
let	-11.0802
▁tune	-11.0804
▁mid	-11.0811
yu	-11.0816
▁subtask	-11.0817
▁regard	-11.0819
▁hilbert	-11.0829
▁arms	-11.0832
▁rapidly	-11.0833
▁ordinary	-11.0835
function	-11.084
90	-11.0844
▁dis	-11.0852
▁tracker	-11.086
▁covering	-11.086
▁panel	-11.0865
len	-11.0867
▁bahdanau	-11.0867
▁curriculum	-11.0867
▁recognizing	-11.0867
▁42	-11.087
feature	-11.0871
▁roy	-11.0882
pa	-11.0883
val	-11.0885
45	-11.0888
cp	-11.0891
▁morphology	-11.0905
▁japanese	-11.0907
▁indicated	-11.0919
▁ross	-11.0929
▁studying	-11.0931
lr	-11.0933
ran	-11.094
▁heidelberg	-11.0943
▁inferring	-11.0943
▁royal	-11.0949
including	-11.095
▁$	-11.0957
▁optimisation	-11.0957
ised	-11.0966
▁12:	-11.0975
▁admm	-11.0979
▁deconvolution	-11.0981
▁editor	-11.0982
▁undirected	-11.0982
ki	-11.0983
▁specialized	-11.0985
▁incorporates	-11.099
iccv	-11.0993
▁forum	-11.0998
▁assigns	-11.0999
▁manuscript	-11.1002
▁advance	-11.1005
▁phone	-11.1007
compositionality	-11.1024
▁conceptual	-11.1028
▁gained	-11.1028
▁ridge	-11.1032
▁ner	-11.1032
▁decided	-11.1036
kar	-11.104
▁brown	-11.1047
▁multiplicative	-11.1055
ag	-11.106
▁bridge	-11.106
nc	-11.1061
▁ignore	-11.1062
▁dev	-11.1065
ies	-11.1066
▁intel	-11.1069
dnn	-11.1071
▁linked	-11.1073
trivial	-11.1074
rr	-11.108
▁cars	-11.1081
▁suited	-11.1083
▁eliminate	-11.1084
cost	-11.1091
▁mi	-11.1091
▁2015,	-11.1091
▁nested	-11.1094
▁job	-11.1094
▁reverse	-11.1095
▁1989.	-11.1097
▁regarded	-11.11
▁labelling	-11.1101
▁peng	-11.1108
characterization	-11.1109
▁nonnegative	-11.111
▁cardinality	-11.1114
zi	-11.1115
▁tom	-11.1122
-100	-11.1123
▁inducing	-11.1125
nearest	-11.1127
▁neuroscience	-11.1135
▁connect	-11.1138
▁dynamically	-11.1142
▁streaming	-11.1144
linearity	-11.1146
▁harder	-11.1147
▁trivial	-11.115
▁implementing	-11.1151
▁load	-11.1155
▁geo	-11.1164
▁reveal	-11.1165
▁tomography	-11.1168
▁gmm	-11.117
▁massive	-11.1172
▁metadata	-11.1177
▁simultaneous	-11.1177
▁adjacency	-11.1191
(1	-11.1195
berg	-11.1196
▁logarithmic	-11.1207
flow	-11.121
▁observing	-11.1213
▁reliability	-11.1213
▁ordinal	-11.1213
▁automation	-11.1213
▁pressure	-11.1215
▁viewpoint	-11.1217
measure	-11.1217
▁gates	-11.1221
constrained	-11.1225
▁scikit	-11.1231
▁simplest	-11.1233
▁adds	-11.124
lab	-11.125
▁satisfied	-11.1252
▁vast	-11.1253
▁wave	-11.1254
▁subword	-11.1257
▁si	-11.126
▁morgan	-11.1264
▁tu	-11.1269
▁chance	-11.1271
gradient	-11.128
ee	-11.1285
▁emoji	-11.1291
101	-11.1295
▁grounding	-11.1295
▁assigning	-11.1301
▁heavy	-11.1304
▁september	-11.1304
▁seven	-11.1304
▁entirely	-11.1305
ens	-11.1306
▁bank	-11.1308
▁med	-11.1309
▁tell	-11.1321
▁surprisingly	-11.1321
▁commands	-11.1322
fa	-11.1326
▁outline	-11.1327
▁ioffe	-11.1331
vectors	-11.1332
▁imply	-11.1332
▁purely	-11.1334
▁affected	-11.1338
values	-11.1341
▁densenet	-11.1342
▁critic	-11.1344
agnostic	-11.1349
49	-11.1351
▁conll	-11.1359
▁conjunction	-11.1371
▁benjamin	-11.1371
▁meanwhile	-11.1372
▁2000	-11.1373
▁atomic	-11.1374
▁iii	-11.1375
▁commercial	-11.1384
▁sar	-11.1384
▁severe	-11.1387
▁intended	-11.1391
▁stock	-11.1392
pro	-11.1394
▁flat	-11.1396
iz	-11.1396
▁ko	-11.14
second	-11.1401
jun	-11.1404
▁principled	-11.1407
▁grammatical	-11.1408
labeled	-11.1409
▁efficacy	-11.1411
▁connectionist	-11.1411
▁unless	-11.1413
▁wen	-11.1415
▁offset	-11.142
▁solid	-11.142
▁fu	-11.1421
▁computers	-11.1428
▁priori	-11.1428
▁my	-11.1436
▁densities	-11.1451
▁adjusted	-11.1452
fr	-11.1458
▁yielding	-11.1462
human	-11.1469
▁april	-11.1472
▁redundancy	-11.1475
▁site	-11.1476
38	-11.1479
▁suffers	-11.1487
▁duration	-11.1491
▁recovered	-11.1499
▁ranges	-11.15
0–1	-11.15
▁inpainting	-11.1501
su	-11.1501
tz	-11.1502
hr	-11.151
-16	-11.1512
▁mo	-11.1513
ah	-11.1518
▁summarizes	-11.1518
▁400	-11.1519
▁99	-11.1523
▁sliding	-11.1531
▁varied	-11.1531
▁counter	-11.1532
las	-11.1533
▁pac	-11.1537
preserving	-11.1537
▁outer	-11.1539
▁+1)	-11.1541
▁adapting	-11.1542
▁xie	-11.1543
used	-11.1554
▁capsule	-11.1556
ik	-11.1557
▁filtered	-11.1558
▁ill	-11.1559
ready	-11.156
▁experimentally	-11.1563
▁8.	-11.1567
▁cascade	-11.1569
frame	-11.1572
▁applicability	-11.1572
▁arbitrarily	-11.1572
▁readily	-11.1572
▁copyright	-11.1573
▁speaking	-11.1579
▁kaiming	-11.1585
▁normally	-11.1589
can	-11.1589
27	-11.1592
ini	-11.1593
▁predicate	-11.1593
ster	-11.1594
▁ambiguous	-11.1597
▁industry	-11.16
▁diag	-11.1603
path	-11.1605
qu	-11.1605
▁ablation	-11.1612
▁hong	-11.1613
har	-11.1617
▁learners	-11.1618
▁specification	-11.1618
▁presentation	-11.1621
▁limiting	-11.1627
▁extracts	-11.1629
▁lim	-11.163
aaai	-11.1631
▁canada	-11.1634
▁statistic	-11.1635
▁sounds	-11.1636
▁sup	-11.1638
▁routing	-11.164
▁2017,	-11.1641
▁sh	-11.1642
–14	-11.1643
▁adjust	-11.1645
▁department	-11.1647
▁arithmetic	-11.1653
▁passes	-11.1658
cation	-11.1662
▁triples	-11.1662
▁drawing	-11.1664
fitting	-11.1666
sub	-11.1666
▁robotic	-11.167
33	-11.1671
▁statements	-11.1678
▁addressing	-11.1687
▁blood	-11.1691
▁bin	-11.1691
▁marco	-11.1695
▁52	-11.1696
▁scott	-11.1696
bin	-11.1708
▁started	-11.1711
dis	-11.1714
resource	-11.1717
▁expand	-11.1717
▁conjugate	-11.1719
blue	-11.1721
▁concerns	-11.1723
▁restrict	-11.1728
:1412.6980	-11.1735
▁bellemare	-11.1735
▁contrary	-11.1735
za	-11.1736
most	-11.1736
▁embed	-11.1737
▁generalizes	-11.1738
ani	-11.1739
▁margins	-11.1739
ut	-11.174
▁tv	-11.174
▁discovering	-11.1742
▁angles	-11.1743
rnns	-11.1744
▁∧	-11.1745
–19	-11.175
▁looks	-11.1758
▁millions	-11.1769
▁46	-11.177
▁funded	-11.1778
▁rewrite	-11.1778
▁degradation	-11.1778
▁shortest	-11.1779
▁tight	-11.1787
▁quantized	-11.1788
sets	-11.1789
1)	-11.1789
tp	-11.1793
▁break	-11.1798
▁definite	-11.1812
▁script	-11.1814
▁trials	-11.1817
▁[18]	-11.1818
▁considerably	-11.182
▁rendering	-11.1821
▁ζ	-11.1824
▁hospital	-11.1825
▁ji	-11.1829
ous	-11.1831
cher	-11.1831
ana	-11.1834
▁places	-11.185
▁algebraic	-11.1855
▁me	-11.1856
▁costly	-11.1856
▁agarwal	-11.186
▁twice	-11.186
▁acceptable	-11.186
▁obtains	-11.1867
▁el	-11.1871
▁kb	-11.1871
ep	-11.1877
▁heading	-11.1878
▁75	-11.1878
▁9.	-11.1879
▁pro	-11.1884
▁continue	-11.1887
▁impose	-11.1891
▁batches	-11.1895
▁composite	-11.1902
▁discriminant	-11.1902
▁species	-11.1902
▁gal	-11.1905
▁displayed	-11.1906
▁november	-11.1921
tune	-11.1922
4%	-11.1927
▁dqn	-11.1929
▁clips	-11.1938
tn	-11.1938
▁somewhat	-11.1938
ful	-11.1939
▁inclusion	-11.1944
▁opposite	-11.1944
▁corrupted	-11.1944
▁deployed	-11.1945
networks	-11.1946
▁convexity	-11.195
▁wall	-11.1953
▁centers	-11.1953
▁relatedness	-11.1954
cr	-11.1961
▁modular	-11.1969
▁histograms	-11.197
▁grouped	-11.1972
▁cp	-11.1982
▁lagrangian	-11.1986
▁alternatives	-11.1986
▁keyword	-11.1993
▁parsers	-11.1993
▁colored	-11.1994
▁5.1	-11.1997
face	-11.2002
▁gamma	-11.2008
▁jensen	-11.2015
▁reproduce	-11.2018
▁fingerprint	-11.2026
▁crowdsourcing	-11.2028
▁eventually	-11.2029
▁gradually	-11.2029
▁solves	-11.2041
▁wmt	-11.2042
br	-11.2043
▁sphere	-11.2043
▁hundreds	-11.2048
algorithm	-11.2056
▁discriminate	-11.2065
▁street	-11.2066
▁strings	-11.2067
svd	-11.2067
▁differently	-11.2068
▁continual	-11.2068
ics	-11.2072
▁aistats	-11.2072
▁customer	-11.2076
tag	-11.2076
▁gave	-11.2077
▁notably	-11.2078
▁normalizing	-11.2078
sentence	-11.2083
▁tail	-11.2085
▁analytical	-11.2113
▁oxford	-11.2114
adaptive	-11.2114
▁countries	-11.2114
▁krause	-11.2114
▁edward	-11.2116
▁stein	-11.2117
▁sites	-11.2117
▁leverages	-11.2123
▁≡	-11.213
▁expectations	-11.2132
▁preferred	-11.2135
▁convnet	-11.2135
▁encoders	-11.2143
▁chooses	-11.2148
▁tran	-11.2156
▁theories	-11.2157
▁unstructured	-11.2158
▁38	-11.2158
unable	-11.2164
▁linking	-11.2172
▁trial	-11.2175
▁chains	-11.2177
ae	-11.218
▁41	-11.2182
dm	-11.2194
▁2.2.	-11.2197
▁weather	-11.22
▁twenty	-11.22
▁atari	-11.2202
▁ideally	-11.2204
ist	-11.2206
▁localized	-11.2214
▁39	-11.2214
▁reconstructions	-11.2221
ong	-11.2223
▁dans	-11.2226
▁continuously	-11.2229
▁multitask	-11.2231
▁economic	-11.2232
▁une	-11.2239
▁compressive	-11.224
88	-11.2241
▁education	-11.2242
▁academy	-11.2243
▁donahue	-11.2243
▁swarm	-11.2243
▁karen	-11.2244
▁decompose	-11.2245
▁χ	-11.2249
ell	-11.2252
cv	-11.2259
▁youtube	-11.2263
▁collections	-11.2263
▁analogous	-11.2267
▁creates	-11.227
▁molecules	-11.227
▁decades	-11.2271
▁prototype	-11.2273
▁quasi	-11.2273
▁retinal	-11.2274
ning	-11.2274
▁induce	-11.2278
▁highlighted	-11.2284
▁thresholds	-11.2286
▁preceding	-11.2287
ada	-11.2287
▁getting	-11.2289
ities	-11.2294
par	-11.2296
▁1024	-11.2298
▁conversations	-11.2298
▁ratios	-11.23
▁abstractive	-11.2302
▁learnable	-11.2302
▁constructs	-11.2302
▁lab	-11.2304
pass	-11.2305
▁grounded	-11.2306
rn	-11.2306
▁(2013)	-11.2309
▁happens	-11.2316
▁anatomical	-11.2324
▁seismic	-11.233
▁demonstrating	-11.233
▁jones	-11.2331
real	-11.2335
▁cortex	-11.2335
▁collecting	-11.2339
▁refined	-11.2342
▁mimic	-11.2342
▁assignments	-11.2349
▁minimizer	-11.2353
icassp	-11.2357
▁yao	-11.2365
resp	-11.2373
▁ozair	-11.2374
▁karpathy	-11.2374
▁oct	-11.2375
▁tucker	-11.2381
48	-11.2383
▁verified	-11.2385
▁board	-11.2391
▁horizon	-11.2392
uri	-11.2394
▁political	-11.2398
▁individually	-11.2398
▁ascent	-11.2399
ney	-11.2408
▁controller	-11.2412
▁disambiguation	-11.2418
▁entailment	-11.2418
▁medium	-11.2418
▁inversion	-11.2418
▁teams	-11.2419
▁supporting	-11.2424
▁exchange	-11.2425
▁stacking	-11.2427
▁reality	-11.2428
▁screen	-11.2434
▁pu	-11.2436
vs	-11.2449
▁mitigate	-11.245
▁psnr	-11.2453
ica	-11.2454
▁gas	-11.2456
▁environmental	-11.2459
▁bioinformatics	-11.2462
▁joseph	-11.2462
▁hamiltonian	-11.2462
tyr	-11.2463
▁13:	-11.2473
▁vice	-11.2478
eu	-11.2479
▁atom	-11.2481
▁master	-11.2482
mnist	-11.2488
-50	-11.2489
yo	-11.249
lp	-11.249
▁ty	-11.2497
▁protect	-11.2502
smooth	-11.2502
▁freitas	-11.2507
▁magazine	-11.2507
▁pouget	-11.2507
▁wojciech	-11.2507
▁shifts	-11.2508
▁3.1.	-11.2513
▁concludes	-11.2515
ram	-11.2515
▁accounts	-11.2519
▁decomposed	-11.2519
gru	-11.2523
▁lighting	-11.2525
ud	-11.2533
ofthe	-11.2535
2-	-11.2535
core	-11.2537
▁sur	-11.2544
gd	-11.2549
▁61	-11.255
▁competing	-11.2551
▁moves	-11.2552
▁concerned	-11.2554
▁inherently	-11.2555
▁deployment	-11.2556
▁pour	-11.2558
ver	-11.2559
▁minimax	-11.256
6%	-11.256
note	-11.2561
▁behavioral	-11.2561
▁gating	-11.2562
sized	-11.2566
▁motor	-11.2572
fit	-11.2574
sec	-11.2586
ating	-11.2588
pre	-11.2589
▁convenient	-11.2594
▁semidefinite	-11.2597
chi	-11.2597
5):	-11.2601
▁triangle	-11.2601
▁von	-11.2604
▁formulas	-11.2605
▁covers	-11.2608
dimension	-11.2624
▁letter	-11.2633
▁synaptic	-11.264
▁equals	-11.2641
▁warping	-11.2643
▁genes	-11.2643
▁october	-11.2644
ero	-11.2647
▁5.2	-11.265
part	-11.2657
▁lip	-11.2662
hop	-11.2665
▁newly	-11.2669
▁perturbed	-11.2671
▁weiss	-11.2673
▁circuits	-11.2675
▁refine	-11.2676
▁rotations	-11.268
▁hoffman	-11.2682
▁ex	-11.2684
▁comp	-11.2684
▁fill	-11.2685
▁munos	-11.2687
▁pedestrian	-11.2692
▁vessel	-11.2692
▁families	-11.2693
–23	-11.2695
▁notable	-11.2696
39	-11.2698
▁rough	-11.2701
▁perspectives	-11.2701
▁senses	-11.2714
▁penn	-11.2719
bn	-11.2721
53	-11.2723
ated	-11.2723
hu	-11.2728
▁equilibrium	-11.2731
▁grouping	-11.2735
▁archive	-11.2737
▁recursively	-11.2737
▁mismatch	-11.2742
head	-11.2743
60	-11.275
▁evolving	-11.2752
▁intensities	-11.2778
▁focal	-11.2778
▁healthcare	-11.2778
▁reveals	-11.2779
▁brox	-11.2779
▁controlling	-11.2781
▁constituent	-11.2783
▁particles	-11.2784
▁0.9	-11.2784
▁deviations	-11.2788
mat	-11.2789
2014	-11.279
con	-11.279
jo	-11.279
▁reed	-11.2791
▁shah	-11.2792
▁C	-11.2802
shi	-11.2804
▁united	-11.2805
▁trains	-11.2807
2018	-11.281
▁pierre	-11.2816
zy	-11.2821
▁architectural	-11.2823
▁backbone	-11.2823
▁xavier	-11.2823
▁jacobian	-11.2824
▁star	-11.2827
pos	-11.2834
▁51	-11.2835
gm	-11.2835
▁attend	-11.2841
▁imbalanced	-11.2841
▁intensive	-11.2848
her	-11.2867
22	-11.2867
▁ra	-11.2868
▁saddle	-11.287
▁friedman	-11.287
▁summation	-11.287
▁arthur	-11.287
▁fischer	-11.287
▁blur	-11.287
▁analytics	-11.2874
▁tournament	-11.2875
▁sim	-11.2886
ish	-11.2886
▁80%	-11.2891
▁mdps	-11.2893
visual	-11.2894
▁threads	-11.2901
eg	-11.2904
▁fused	-11.2905
▁informatics	-11.2908
base	-11.291
51	-11.291
▁collective	-11.2915
▁toolbox	-11.2916
▁kullback	-11.2916
▁cortes	-11.2916
▁complement	-11.2918
cu	-11.2919
▁∫	-11.292
▁dominant	-11.2923
▁implications	-11.293
vo	-11.2935
semantic	-11.2936
▁reflects	-11.2936
▁noting	-11.2938
▁leaves	-11.2943
▁pe	-11.2944
▁luo	-11.2945
▁iterates	-11.2947
▁54	-11.2948
43	-11.2953
▁translating	-11.2955
▁1.3	-11.2957
▁readers	-11.296
▁shrinkage	-11.2962
▁kaiser	-11.2962
▁tab	-11.2964
▁arises	-11.2966
▁anti	-11.2966
▁reviewers	-11.2974
weight	-11.2977
assisted	-11.2978
ren	-11.2982
stationary	-11.2984
▁1990.	-11.2996
=1	-11.3002
▁pieter	-11.3009
ok	-11.3013
▁neuro	-11.3016
▁newton	-11.3018
ue	-11.3024
.1.	-11.3026
▁alternate	-11.3028
new	-11.303
▁lei	-11.3034
128	-11.3038
positive	-11.3045
neural	-11.3046
▁dark	-11.3047
▁surveillance	-11.3056
▁tenenbaum	-11.3056
ˆ	-11.3056
▁resonance	-11.3056
▁normalize	-11.3058
▁0.2	-11.3061
▁nodule	-11.3063
▁young	-11.3069
▁0.01	-11.3074
▁traditionally	-11.3077
▁things	-11.3078
▁forces	-11.3084
▁checking	-11.3084
phase	-11.309
▁mod	-11.3091
ical	-11.3094
▁feng	-11.3099
▁printed	-11.3106
▁cast	-11.311
▁⊥	-11.311
▁affects	-11.3112
auc	-11.3113
▁barto	-11.3117
▁slots	-11.3126
der	-11.3129
▁cropped	-11.3132
nmt	-11.3136
▁styles	-11.3137
▁arc	-11.3137
▁ever	-11.3142
▁careful	-11.3148
row	-11.315
▁differentiation	-11.3151
▁oord	-11.3151
▁theano	-11.3152
▁perfectly	-11.3155
▁paragraphs	-11.3157
▁straight	-11.3157
▁pictures	-11.3162
▁keypoint	-11.3165
▁kaufmann	-11.3166
▁singer	-11.3166
ping	-11.3175
▁freedom	-11.3176
▁suboptimal	-11.3176
factor	-11.3181
▁caffe	-11.3182
▁wood	-11.3182
sch	-11.3183
▁clip	-11.3187
▁fa	-11.3189
▁musical	-11.319
verlag	-11.3198
▁illustrations	-11.3205
▁restaurant	-11.3206
▁delta	-11.3209
▁2.0	-11.3209
▁marker	-11.3214
▁photos	-11.3216
item	-11.3222
sm	-11.3226
▁indexing	-11.3229
▁progressive	-11.3244
fl	-11.3246
▁jürgen	-11.3246
▁olivier	-11.3246
▁remarkable	-11.3247
▁bp	-11.3248
▁negation	-11.3254
000	-11.3254
▁corner	-11.3256
▁55	-11.326
200	-11.3265
oc	-11.3267
▁ga	-11.3268
▁5-	-11.3268
stein	-11.3292
▁tolerance	-11.3294
▁stories	-11.3294
▁asymptotically	-11.3295
▁strict	-11.3295
▁bootstrap	-11.3301
▁facebook	-11.3306
93	-11.3308
▁synthesize	-11.331
matrix	-11.3318
π	-11.332
rp	-11.3327
▁120	-11.333
▁occurrences	-11.3333
bar	-11.3336
▁dedicated	-11.3343
▁spelling	-11.3344
▁extractive	-11.3345
▁expanded	-11.3346
▁quantitatively	-11.3352
▁piece	-11.3352
▁roman	-11.3355
▁bring	-11.3359
▁avoiding	-11.3367
▁corrected	-11.3368
▁land	-11.337
▁bing	-11.337
hy	-11.3379
▁formation	-11.3379
▁intent	-11.3381
gi	-11.3386
variance	-11.3387
▁calculations	-11.3388
▁government	-11.3391
leibler	-11.3391
▁hyperbolic	-11.3391
▁shaoqing	-11.3391
▁fr	-11.3391
▁transferring	-11.3392
▁hinge	-11.3393
▁fairly	-11.3396
▁signed	-11.3401
▁genome	-11.3403
▁tao	-11.3409
▁met	-11.3412
▁restrictions	-11.3423
▁delay	-11.3425
gb	-11.3429
ph	-11.3432
guided	-11.3433
▁immediate	-11.3437
▁flickr	-11.344
▁invertible	-11.344
▁fool	-11.3441
▁aid	-11.3444
▁drawback	-11.3449
▁encodings	-11.345
▁br	-11.3451
▁suggesting	-11.3456
-8	-11.346
▁neutral	-11.3462
▁47	-11.3468
np	-11.3469
▁detections	-11.3471
▁sig	-11.3473
▁melanoma	-11.3473
▁transforming	-11.3473
▁tagger	-11.3478
ug	-11.3481
▁daan	-11.3491
▁transferred	-11.3492
▁gait	-11.3492
▁correctness	-11.3494
les	-11.3498
8–1	-11.3498
▁ctc	-11.3499
embedding	-11.3501
▁recovering	-11.3504
▁publications	-11.3506
list	-11.3509
▁2014,	-11.3509
▁signatures	-11.3511
jan	-11.3515
ö	-11.3523
ism	-11.3535
34	-11.3538
▁concatenating	-11.3538
▁proposing	-11.3539
▁attracted	-11.3539
normalized	-11.354
ral	-11.3543
▁operates	-11.3545
▁covered	-11.3547
ji	-11.356
▁nominal	-11.3564
(11)	-11.3565
▁exhibits	-11.3569
▁sepp	-11.3571
▁ci	-11.3578
▁excellent	-11.358
44	-11.3581
▁january	-11.3588
▁bone	-11.3588
cal	-11.36
▁slight	-11.3604
▁episodes	-11.3606
number	-11.3608
▁generators	-11.3619
▁transcription	-11.3635
▁antonoglou	-11.3637
▁rademacher	-11.3637
▁ultrasound	-11.3637
▁polarity	-11.3638
▁simplex	-11.3642
▁assessing	-11.3647
eb	-11.365
▁merged	-11.3654
vocabulary	-11.3659
▁mohammad	-11.3664
4–2	-11.3665
king	-11.3665
▁alpha	-11.3671
group	-11.3676
ez	-11.368
▁merging	-11.3683
▁accelerate	-11.3685
▁glorot	-11.3687
▁salimans	-11.3687
▁[19]	-11.3687
▁1991.	-11.3688
▁benign	-11.3697
search	-11.3698
▁something	-11.3703
▁calls	-11.3703
ming	-11.3704
high	-11.3707
▁harmonic	-11.3709
2012	-11.371
▁44	-11.3711
▁conjecture	-11.3711
margin	-11.3713
▁native	-11.3714
dr	-11.3715
▁monotone	-11.3715
▁tuple	-11.3716
▁cv	-11.3717
two	-11.372
▁svms	-11.3724
day	-11.3731
▁colon	-11.3735
ng	-11.3736
▁jpeg	-11.3738
▁efros	-11.3738
▁dashed	-11.3741
▁freely	-11.375
▁qi	-11.3757
▁preserved	-11.3761
▁falls	-11.3771
probability	-11.3775
▁school	-11.3778
▁segmentations	-11.378
▁joints	-11.3783
▁acknowledge	-11.3786
300	-11.3787
▁gomez	-11.3788
▁emerging	-11.3789
▁prone	-11.3789
nov	-11.3791
56	-11.3791
▁infeasible	-11.3793
▁specificity	-11.3794
75	-11.3816
▁geodesic	-11.3821
▁coming	-11.3832
▁1988.	-11.3836
reference	-11.3836
oz	-11.3836
ect	-11.3839
▁catastrophic	-11.3839
▁(2012)	-11.3839
▁steering	-11.384
▁pay	-11.3841
▁analytically	-11.3842
▁meanings	-11.3843
▁landscape	-11.385
▁stone	-11.3853
?”	-11.3856
▁attentive	-11.3861
▁cooperative	-11.387
▁nine	-11.3872
68	-11.3873
▁converged	-11.3875
▁hindi	-11.3877
▁49	-11.3878
▁indian	-11.388
fm	-11.3881
▁chat	-11.3884
▁topological	-11.3888
▁kalchbrenner	-11.389
▁xiangyu	-11.389
▁transportation	-11.389
▁bigger	-11.3891
▁formulations	-11.3891
▁discount	-11.3892
▁discarded	-11.3892
▁interpreting	-11.3899
encourages	-11.3901
▁yin	-11.3925
tl	-11.3929
hua	-11.393
▁investigating	-11.3941
▁jaitly	-11.3941
▁psychology	-11.3941
▁rusu	-11.3943
0%	-11.3943
▁omit	-11.3945
▁legal	-11.3947
▁val	-11.3948
▁nmf	-11.3948
▁nonlinearity	-11.395
▁drive	-11.3952
softmax	-11.3952
▁contrastive	-11.3959
▁visualizations	-11.3964
▁examined	-11.3966
▁got	-11.3966
▁today	-11.3967
complete	-11.397
▁cm	-11.397
▁ỹ	-11.3977
▁punctuation	-11.3982
▁5%	-11.3993
▁bipartite	-11.3993
▁indoor	-11.3993
▁openai	-11.3996
▁expanding	-11.3998
▁reuse	-11.3999
▁recommend	-11.4
learner	-11.4002
▁plain	-11.4003
ea	-11.4004
70	-11.4006
▁executed	-11.4006
▁lemmas	-11.4007
▁profiles	-11.4009
▁speedup	-11.4011
▁ye	-11.4011
lw	-11.4011
isation	-11.4013
▁shorter	-11.4015
▁sky	-11.4024
▁amr	-11.4027
.1016	-11.403
▁(3	-11.4031
▁interfaces	-11.4032
▁mechanical	-11.4034
▁sampler	-11.4038
▁tian	-11.4042
▁argumentation	-11.4046
▁mil	-11.4052
its	-11.4055
▁sci	-11.4059
pair	-11.406
▁1.0	-11.406
▁realization	-11.4065
▁fp	-11.4068
▁ce	-11.4069
▁kdd	-11.407
▁sort	-11.4072
▁roth	-11.4074
▁wider	-11.4078
tion	-11.4084
run	-11.4086
tf	-11.409
▁93	-11.4092
ranking	-11.4096
▁discretization	-11.4097
▁imitation	-11.4097
▁laboratory	-11.4097
▁timothy	-11.4097
▁prohibitive	-11.4097
▁ssd	-11.4099
▁timestep	-11.4099
▁pal	-11.41
▁covariates	-11.4106
▁simplification	-11.4108
▁equivalently	-11.4115
▁bins	-11.4118
▁masked	-11.4118
att	-11.4125
▁lastly	-11.4134
▁signs	-11.4135
▁pieces	-11.4141
▁surprising	-11.4146
▁preliminaries	-11.4149
▁bernstein	-11.4149
▁russian	-11.4149
▁sums	-11.415
▁poly	-11.415
other	-11.4152
▁plos	-11.416
▁denoting	-11.4165
▁dp	-11.4171
▁appearing	-11.4174
▁hi	-11.4185
▁multipliers	-11.4187
▁gross	-11.4188
ence	-11.4194
2013	-11.4196
app	-11.42
▁malicious	-11.4201
▁reaching	-11.4201
▁responsible	-11.4202
▁langford	-11.4202
▁rasmussen	-11.4202
▁′∈	-11.4203
▁imputation	-11.4203
▁fasttext	-11.4206
tu	-11.4207
▁send	-11.4209
▁eqn	-11.4211
▁pretraining	-11.4215
67	-11.4216
7%	-11.4217
▁proceed	-11.4217
▁160	-11.4217
▁returned	-11.4217
▁recording	-11.4222
men	-11.4231
▁(5)	-11.4234
▁passages	-11.4235
▁lyo	-11.4246
▁committee	-11.4246
bre	-11.4248
2011	-11.4251
▁(2018).	-11.4252
stochastic	-11.4253
▁microscopy	-11.4254
performance	-11.4256
▁indicators	-11.4256
▁sides	-11.4268
▁becoming	-11.4274
▁depicts	-11.4281
▁3.2.	-11.4292
66	-11.4303
▁irregular	-11.4305
▁scheduling	-11.4308
▁dramatically	-11.4308
▁annealing	-11.4308
▁plotted	-11.4308
matching	-11.431
▁jain	-11.4313
▁transferable	-11.4317
▁calculus	-11.432
▁minor	-11.4321
▁cao	-11.4322
▁multiagent	-11.4324
▁pointer	-11.4324
▁home	-11.4324
▁partitioned	-11.4325
convolutional	-11.4325
ow	-11.4327
▁4)	-11.4329
▁hull	-11.4329
comprised	-11.4346
▁descriptive	-11.4353
sampled	-11.4354
▁0.8	-11.4355
hmm	-11.4356
▁anonymous	-11.4357
▁pareto	-11.4357
▁determination	-11.4358
▁customers	-11.4358
▁bruna	-11.4361
▁transmission	-11.4361
▁klaus	-11.4361
▁unstable	-11.4361
▁malik	-11.4362
▁funding	-11.4363
▁elementary	-11.4363
▁crc	-11.4366
▁14:	-11.4367
normal	-11.4368
what	-11.4371
▁triplets	-11.4373
tra	-11.4374
▁demonstration	-11.4375
▁cascaded	-11.4377
denoted	-11.4385
10,	-11.4392
256	-11.4393
amp	-11.4394
▁rmse	-11.4398
▁dialogues	-11.4398
▁gaps	-11.4404
▁artifact	-11.4404
▁designs	-11.4408
1–5	-11.4409
▁tri	-11.4413
36	-11.4413
▁feasibility	-11.4415
▁psychological	-11.4415
▁berg	-11.4415
▁veness	-11.4415
▁suite	-11.4417
▁2018,	-11.4423
▁,...	-11.4424
▁modifying	-11.4424
▁coupling	-11.4427
57	-11.4431
▁56	-11.4432
translation	-11.4438
▁([	-11.4438
τ	-11.4438
▁mu	-11.4439
▁stat	-11.4439
▁∅	-11.4441
▁devin	-11.4442
▁request	-11.4442
▁vc	-11.4443
▁accessible	-11.4444
▁occurring	-11.4448
▁equipped	-11.4456
▁scripts	-11.4468
▁multiplied	-11.4469
▁hamming	-11.4469
⋅∥	-11.447
▁bellman	-11.447
▁interspeech	-11.447
▁mix	-11.4471
here	-11.4471
▁progression	-11.4471
▁subgradient	-11.4471
▁negatives	-11.4477
▁grasp	-11.4479
lms	-11.4484
lic	-11.4485
sn	-11.4506
▁really	-11.4507
▁zeros	-11.4512
▁submissions	-11.4514
▁schmidt	-11.4521
tc	-11.4522
▁fire	-11.4523
98	-11.4523
▁citeseer	-11.4523
▁identifies	-11.4523
resnet	-11.4526
▁90%	-11.4529
▁placement	-11.4531
▁circuit	-11.4533
▁]).	-11.4533
▁das	-11.4538
▁ignored	-11.4541
▁michel	-11.4541
▁highway	-11.4541
97	-11.4547
▁approximates	-11.4547
▁(2013).	-11.455
▁ranks	-11.4552
ck	-11.4556
▁push	-11.4556
▁developments	-11.4567
▁surfaces	-11.457
▁markers	-11.457
mode	-11.4577
▁february	-11.4578
▁company	-11.4578
▁restoration	-11.4578
▁omitted	-11.4578
long	-11.4578
cam	-11.4579
▁encountered	-11.458
▁adv	-11.458
▁xi	-11.458
▁theorems	-11.4587
▁publishers	-11.4587
▁advice	-11.4592
▁{}	-11.4594
▁anchor	-11.4597
▁arrows	-11.4597
fe	-11.46
▁choi	-11.461
mb	-11.4614
den	-11.4615
▁decreased	-11.4615
life	-11.4619
▁bilateral	-11.462
▁movies	-11.4623
▁scatter	-11.4625
▁generations	-11.4627
hoc	-11.4631
distance	-11.4632
▁tibshirani	-11.4633
▁zeiler	-11.4633
fo	-11.4633
▁characterizing	-11.4634
▁teaching	-11.4635
▁hutter	-11.4636
▁lost	-11.464
▁duan	-11.464
▁ali	-11.4642
key	-11.4651
▁outperforming	-11.4652
bm	-11.4656
▁bilstm	-11.4657
rich	-11.4658
▁versa	-11.466
bra	-11.4662
▁echo	-11.4663
▁indexed	-11.4665
í	-11.4667
▁proves	-11.4672
▁drawbacks	-11.4678
nets	-11.4679
▁exception	-11.4681
fine	-11.4684
▁optimizes	-11.4686
▁khosla	-11.4688
▁schölkopf	-11.4688
▁deriving	-11.4688
regularized	-11.4689
dim	-11.469
▁reads	-11.4691
error	-11.4692
▁pipelines	-11.4692
▁emerged	-11.4695
ite	-11.4696
▁lambda	-11.4697
▁xing	-11.4699
▁suggestions	-11.4711
ot	-11.4716
29	-11.472
dataset	-11.4721
cls	-11.4722
99	-11.4723
▁titles	-11.4731
▁anomalies	-11.4735
▁workflow	-11.4736
▁rounds	-11.4738
▁encouraging	-11.4744
▁emergence	-11.4744
▁predicates	-11.4744
▁65	-11.4744
▁publishing	-11.4745
▁displacement	-11.475
▁qualitatively	-11.4751
bayesian	-11.4755
▁creative	-11.4756
shown	-11.4759
▁multiplier	-11.4759
▁sam	-11.4763
▁neighbours	-11.4764
▁beta	-11.4765
▁exceeds	-11.4765
kl	-11.4771
▁emotional	-11.4776
sim	-11.4786
▁hao	-11.4787
▁air	-11.4796
▁compatible	-11.4797
▁skills	-11.4797
▁genre	-11.4797
▁bergstra	-11.48
▁counterfactual	-11.48
▁mao	-11.4803
▁brian	-11.4804
▁factorized	-11.4806
▁convenience	-11.4808
▁2019	-11.481
▁treating	-11.481
▁live	-11.4811
ise	-11.4812
▁resolve	-11.4815
body	-11.482
▁visualized	-11.4826
ld	-11.4833
mon	-11.4835
6–1	-11.4838
▁10-	-11.4841
column	-11.4841
▁chan	-11.4842
▁lang	-11.4843
▁clause	-11.4845
elle	-11.4855
▁attractive	-11.4855
▁constrain	-11.4856
▁senior	-11.4856
▁crime	-11.4856
▁joel	-11.4856
▁hugo	-11.4856
▁radar	-11.4859
▁rational	-11.4859
▁organizers	-11.486
▁12.	-11.4863
▁collapse	-11.4864
▁heat	-11.4866
▁klein	-11.4866
▁meet	-11.4868
isclassification	-11.487
opt	-11.487
▁highlights	-11.4878
▁hall	-11.4879
▁relate	-11.4886
▁workshops	-11.4892
wp	-11.4896
▁persons	-11.49
1–4	-11.4902
▁strengths	-11.4906
–16	-11.4908
▁triple	-11.4909
▁sake	-11.491
▁razvan	-11.4912
▁substituting	-11.4912
▁vedaldi	-11.4912
shelf	-11.4912
▁egocentric	-11.4912
▁bird	-11.4913
▁steven	-11.4919
▁voc	-11.4921
▁mac	-11.4921
▁rarely	-11.4923
▁db	-11.4925
chen	-11.4925
▁footnotes	-11.4926
▁uci	-11.4928
▁2003	-11.4931
fer	-11.4935
sky	-11.4936
▁randomness	-11.4936
▁adaptively	-11.4936
▁trigger	-11.4942
parallel	-11.4947
machine	-11.4949
points	-11.495
▁bell	-11.4953
green	-11.4955
▁nonzero	-11.4961
▁vessels	-11.4962
▁amplitude	-11.4963
▁1%	-11.4967
mse	-11.4968
▁successive	-11.4968
9%	-11.4969
▁haffner	-11.4969
▁burden	-11.4969
▁ahmed	-11.4969
▁heess	-11.497
▁eeg	-11.4975
31	-11.4983
▁grow	-11.4987
▁sdp	-11.4987
▁hair	-11.499
▁walks	-11.4996
▁avoids	-11.4998
cca	-11.5006
▁philipp	-11.5008
▁ignoring	-11.5013
▁lens	-11.5016
sson	-11.5016
▁abstracts	-11.5021
▁libraries	-11.5026
ski	-11.5027
▁summing	-11.5028
▁downloaded	-11.5029
▁calculates	-11.503
▁vote	-11.5032
▁repeatedly	-11.5034
▁phonemes	-11.5036
87	-11.5039
▁angular	-11.5039
▁documentation	-11.5039
▁superpixel	-11.504
▁quick	-11.5044
▁displays	-11.5046
▁stay	-11.5047
▁mistakes	-11.5048
▁animal	-11.5048
▁convnets	-11.5053
how	-11.5054
02	-11.5061
▁mike	-11.5065
▁rigid	-11.5067
▁narrow	-11.5069
gu	-11.5074
▁buildings	-11.508
▁rigorous	-11.5081
▁circle	-11.5081
▁bernhard	-11.5084
▁laplace	-11.5084
▁wavenet	-11.5087
▁handbook	-11.5087
▁(2018)	-11.5087
cell	-11.5089
▁96	-11.509
▁variances	-11.5091
▁practitioners	-11.5092
▁favor	-11.5093
pe	-11.5093
▁gong	-11.5099
yi	-11.51
▁uk	-11.5102
▁ep	-11.5104
▁knowing	-11.5105
rm	-11.5106
vin	-11.5106
▁shifting	-11.511
du	-11.5116
▁parents	-11.5122
▁conflict	-11.5123
▁enhancing	-11.5123
▁gallery	-11.5128
▁ke	-11.5134
▁selective	-11.5136
▁ne	-11.5139
▁prominent	-11.5139
centric	-11.5141
ŝ	-11.5141
▁maaten	-11.5141
▁mehdi	-11.5141
▁bart	-11.5142
▁inf	-11.5144
▁(2011)	-11.5147
depth	-11.5148
adi	-11.5149
▁concern	-11.5152
sta	-11.5155
▁opinions	-11.5159
▁counterpart	-11.516
▁shares	-11.516
▁instruction	-11.5163
tt	-11.5167
then	-11.5176
▁con	-11.5183
▁43	-11.5199
▁guidance	-11.52
▁léon	-11.52
▁referring	-11.52
▁formatting	-11.5201
▁250	-11.5202
input	-11.5203
▁handled	-11.5206
▁happen	-11.521
▁mathematically	-11.5218
▁95	-11.5218
▁developers	-11.5219
="	-11.5222
▁aimed	-11.5222
▁informal	-11.5229
ei	-11.5233
▁billion	-11.5236
▁numbered	-11.5236
far	-11.5238
multidimensional	-11.5243
▁demographic	-11.5244
ele	-11.5248
▁brings	-11.5248
▁nodules	-11.5249
▁180	-11.525
dec	-11.5255
▁optima	-11.5255
link	-11.5256
▁comprising	-11.5258
ert	-11.5264
▁pearson	-11.5267
▁(2010)	-11.5269
ht	-11.5273
▁death	-11.5277
▁gb	-11.5277
▁country	-11.5281
update	-11.5283
dc	-11.5291
dan	-11.5303
▁hypothesize	-11.5305
▁penalized	-11.5306
▁blundell	-11.5317
▁longitudinal	-11.5317
▁concise	-11.5317
▁freebase	-11.5318
▁driven	-11.532
▁traveling	-11.5321
seeks	-11.5325
▁sessions	-11.5329
plane	-11.5329
▁imposed	-11.5334
▁primitive	-11.5336
▁slower	-11.5338
both	-11.5339
▁reaction	-11.534
ras	-11.5343
carlo	-11.535
speaker	-11.535
difference	-11.535
▁oriented	-11.5353
batches	-11.5355
▁incoming	-11.5356
94	-11.5361
nes	-11.5361
▁govern	-11.5362
mlp	-11.537
wi	-11.5371
▁capital	-11.5372
▁quantification	-11.5376
▁disparity	-11.5376
▁london	-11.5376
▁burges	-11.5376
▁garnett	-11.5377
▁implements	-11.5378
▁recht	-11.5378
▁spike	-11.538
ira	-11.5384
▁experimentation	-11.5388
▁save	-11.5391
▁license	-11.5392
add	-11.5399
▁11.	-11.5401
aki	-11.5405
▁icd	-11.5408
▁north	-11.5408
aided	-11.5413
▁shifted	-11.5417
▁band	-11.5417
▁crop	-11.5417
varying	-11.5419
hidden	-11.5426
▁inform	-11.5426
▁render	-11.5426
▁spectra	-11.5431
place	-11.5432
▁ronald	-11.5436
41	-11.5436
fs	-11.5436
▁disentangled	-11.5441
▁sea	-11.5441
▁blank	-11.5444
▁discusses	-11.5445
old	-11.5446
▁compound	-11.5451
▁appropriately	-11.5451
▁rep	-11.5452
▁blog	-11.5454
vr	-11.5456
▁week	-11.5467
ano	-11.5468
▁shu	-11.5474
▁0.3	-11.5484
▁2007	-11.5486
middle	-11.5487
annotated	-11.5488
aiming	-11.5493
▁men	-11.5493
▁precup	-11.5496
▁wilson	-11.5496
▁aerial	-11.5496
▁feeding	-11.5497
▁functionality	-11.5497
▁pi	-11.55
▁101	-11.5503
large	-11.5503
▁attempted	-11.5506
▁regressor	-11.5507
▁occlusions	-11.5508
▁peters	-11.5511
▁parametrized	-11.5514
▁filling	-11.5515
▁dcnn	-11.5521
▁switching	-11.5522
eck	-11.5527
od	-11.5527
▁chu	-11.5539
▁kg	-11.5542
▁prune	-11.5544
tan	-11.5544
▁iterate	-11.5547
▁viewing	-11.5548
▁padding	-11.5552
▁arjovsky	-11.5556
▁federated	-11.5556
▁outdoor	-11.5556
▁thompson	-11.5556
▁iou	-11.5556
▁inspection	-11.5556
▁spanning	-11.5556
▁winning	-11.5557
ρ	-11.5558
▁problematic	-11.5558
▁frobenius	-11.556
1%	-11.556
▁prevents	-11.5564
▁exposure	-11.5565
▁gaussians	-11.5569
ey	-11.5569
▁05	-11.557
▁positional	-11.5571
▁emphasize	-11.5582
▁cer	-11.5585
grid	-11.5591
▁promote	-11.5594
▁ids	-11.5596
nl	-11.5596
▁85	-11.5597
▁thread	-11.5597
▁2005	-11.5597
▁am	-11.5599
ze	-11.5601
uc	-11.5603
▁mp	-11.5604
▁atlas	-11.5605
▁stefan	-11.5606
shaped	-11.5609
▁localize	-11.5611
▁exemplar	-11.5612
▁quantile	-11.5613
▁murphy	-11.5616
▁schuster	-11.5616
▁cos	-11.5617
▁appealing	-11.5618
count	-11.5619
▁lv	-11.5622
▁224	-11.5623
▁chung	-11.5629
▁ssim	-11.5632
▁paraphrase	-11.5632
answer	-11.5635
▁alan	-11.5637
▁opponent	-11.5637
▁formalism	-11.5637
▁unigram	-11.5638
md	-11.564
ola	-11.5642
▁folds	-11.5645
uniform	-11.5649
▁col	-11.5657
▁keeps	-11.5659
▁recordings	-11.5662
▁gcn	-11.5664
short	-11.5666
▁lp	-11.5673
▁shin	-11.5673
▁categorized	-11.5674
▁2.3.	-11.5676
▁california	-11.5677
▁jaccard	-11.5677
▁torralba	-11.5677
▁schaul	-11.5677
▁boyd	-11.5678
san	-11.5681
▁latest	-11.5681
▁⊕	-11.5683
▁switch	-11.5683
▁restriction	-11.5699
ny	-11.57
oli	-11.5708
▁fragments	-11.5711
▁finn	-11.5712
▁accept	-11.5717
ln	-11.5719
▁pointed	-11.5725
▁abadi	-11.5728
▁hour	-11.5731
▁ver	-11.5732
▁execute	-11.5734
posed	-11.5735
▁dc	-11.5738
▁attribution	-11.5738
▁personality	-11.5739
▁parallelism	-11.574
▁nearby	-11.5742
1–6	-11.5744
▁accumulated	-11.5745
rcnn	-11.5748
121	-11.5748
gl	-11.5751
▁periodic	-11.5754
qp	-11.5756
▁outlined	-11.5758
▁contours	-11.5761
▁cube	-11.5762
▁ffiow	-11.5762
▁seeds	-11.5762
▁src	-11.5766
ivity	-11.5769
▁)).	-11.577
▁motivates	-11.577
▁vaes	-11.5771
▁58	-11.5772
▁2008	-11.5774
ann	-11.5778
ino	-11.5781
tm	-11.5787
42	-11.5787
▁distortions	-11.58
▁gretton	-11.58
▁guillaume	-11.58
▁mechanics	-11.58
▁enforcing	-11.58
▁kitti	-11.5801
▁adoption	-11.5802
▁pruned	-11.5803
▁rbf	-11.5804
wa	-11.5804
position	-11.5806
problem	-11.5807
▁presenting	-11.5808
▁metz	-11.5812
▁corrections	-11.5823
▁jacob	-11.5824
az	-11.5824
▁va	-11.5828
▁months	-11.5828
▁prefer	-11.5828
▁heads	-11.583
▁fits	-11.583
▁preserves	-11.5835
▁elimination	-11.5838
▁demo	-11.584
▁primitives	-11.5842
wide	-11.5843
computer	-11.5843
ska	-11.5849
fcn	-11.5855
▁[20]	-11.5862
▁moritz	-11.5863
46	-11.5863
▁percent	-11.5864
▁hastie	-11.5865
▁polynomials	-11.5866
▁revealed	-11.5868
ors	-11.5871
▁ensembling	-11.5872
dual	-11.5877
▁ö	-11.588
ico	-11.5884
▁|≤	-11.5885
▁hyperplane	-11.5886
▁fault	-11.5887
▁abc	-11.5889
▁76	-11.5894
▁scattering	-11.5894
63	-11.5898
feng	-11.59
▁late	-11.5901
▁explains	-11.5905
purpose	-11.5912
▁surveys	-11.5914
when	-11.5914
▁download	-11.5917
▁earth	-11.5918
▁validated	-11.5919
▁numeric	-11.5924
▁coordination	-11.5925
good	-11.5931
▁vital	-11.5932
▁0.7	-11.5933
▁clustered	-11.5933
▁acquire	-11.5935
▁balancing	-11.5939
▁considerations	-11.5944
▁tailored	-11.5945
response	-11.5946
▁decade	-11.5948
light	-11.5949
▁segmenting	-11.595
motion	-11.5958
–11	-11.5959
▁beat	-11.5966
▁xiang	-11.5966
topic	-11.5968
▁guess	-11.598
▁sorted	-11.5984
▁collaboration	-11.5988
▁decentralized	-11.5988
▁unclear	-11.5988
▁(2012).	-11.5989
▁laurent	-11.5989
▁floating	-11.599
▁discriminators	-11.5992
segmentation	-11.5996
▁8-	-11.5996
▁assessed	-11.5997
▁arrive	-11.5998
eval	-11.5999
▁yielded	-11.6001
▁latency	-11.6002
▁ucf	-11.6003
(8):	-11.6008
▁char	-11.6009
▁appeared	-11.6009
▁mild	-11.6012
▁richer	-11.6014
▁healthy	-11.6017
▁mmd	-11.6017
▁tuples	-11.6018
var	-11.6024
▁xiong	-11.6027
▁57	-11.6037
▁unlabelled	-11.6037
▁cores	-11.6038
▁philip	-11.6046
▁induces	-11.6046
ill	-11.605
▁aggregating	-11.6051
▁alzheimer	-11.6051
▁dzmitry	-11.6051
▁whilst	-11.6051
▁subtle	-11.6051
▁lightweight	-11.6052
▁regularizing	-11.6052
@@[	-11.6053
001	-11.6056
▁winner	-11.6057
features	-11.6059
▁specifying	-11.6061
▁preventing	-11.6066
cn	-11.6067
ü	-11.6069
▁modelled	-11.607
▁cai	-11.6073
▁distinction	-11.6076
▁fidelity	-11.6079
rec	-11.6085
▁exhaustive	-11.6096
▁smoothed	-11.6097
▁sons	-11.6108
▁querying	-11.6108
▁oov	-11.6108
▁parikh	-11.6115
▁schematic	-11.6115
▁vapnik	-11.6115
▁artistic	-11.6115
▁radial	-11.6118
tri	-11.6119
▁usefulness	-11.6122
mri	-11.6126
labels	-11.6131
av	-11.6135
equation	-11.6136
▁germany	-11.6136
▁fluid	-11.6139
▁observational	-11.6141
▁ming	-11.6158
▁occluded	-11.6159
▁unet	-11.6162
▁posteriors	-11.6163
▁bands	-11.6163
dar	-11.6174
▁apparent	-11.6176
▁gregor	-11.6177
▁proving	-11.6179
▁bordes	-11.6179
▁hate	-11.618
▁superiority	-11.618
▁inconsistent	-11.6181
▁recommended	-11.6183
▁picked	-11.6186
▁mutually	-11.6188
▁couple	-11.6191
▁unlikely	-11.6194
▁confident	-11.6195
▁dog	-11.6196
▁member	-11.6198
reg	-11.6203
overlapping	-11.6204
web	-11.6205
▁integers	-11.6208
59	-11.6211
▁fonts	-11.6215
▁ip	-11.6219
▁interacting	-11.6226
▁substitute	-11.6232
18,	-11.6234
▁elaborate	-11.6234
69	-11.6235
ped	-11.6239
▁cov	-11.624
▁companies	-11.6243
▁provably	-11.6243
▁joshua	-11.6244
▁reasonably	-11.6244
▁perona	-11.6244
▁unifying	-11.6245
▁0.001	-11.6245
sis	-11.6246
▁broadly	-11.6249
consisted	-11.6249
▁influenced	-11.6249
▁promise	-11.6251
▁discounted	-11.6252
▁locate	-11.6259
▁gl	-11.6262
els	-11.6268
▁justification	-11.6269
▁advancement	-11.6269
arising	-11.627
▁dag	-11.6274
ising	-11.6274
consistent	-11.6278
▁interests	-11.6278
ima	-11.628
similarity	-11.6281
▁protocols	-11.6283
▁bars	-11.6285
∥	-11.6287
▁disc	-11.6287
▁10.1	-11.629
iou	-11.6291
▁damage	-11.6296
▁ot	-11.6298
▁insufficient	-11.6299
▁72	-11.63
ura	-11.6302
▁lms	-11.6304
▁bregman	-11.6308
▁matthias	-11.6308
▁downsampling	-11.631
▁titan	-11.6311
▁progressively	-11.6312
▁film	-11.6312
▁filled	-11.6313
▁recognized	-11.6315
▁prepared	-11.6316
▁googlenet	-11.6317
representational	-11.632
▁removes	-11.6321
▁tricks	-11.6321
nu	-11.6322
▁molecule	-11.6322
▁∪{	-11.6327
▁premise	-11.6334
▁hr	-11.6352
specified	-11.6354
differentiable	-11.6355
www	-11.6355
▁notions	-11.6357
▁10,000	-11.6357
through	-11.6357
▁claims	-11.6359
▁constitute	-11.6361
▁bigram	-11.6362
pu	-11.6367
▁drift	-11.6369
▁infrastructure	-11.6374
▁separating	-11.6374
▁shelhamer	-11.6374
▁monocular	-11.6374
▁neighbourhood	-11.6374
▁italian	-11.6374
▁validity	-11.6375
▁ultimately	-11.6375
▁basically	-11.6377
wt	-11.6379
▁generalizing	-11.6379
10.	-11.638
▁afterwards	-11.6381
▁java	-11.6384
▁locality	-11.6386
▁ch	-11.6387
▁attributed	-11.6397
▁miccai	-11.6399
▁phys	-11.6402
▁maintains	-11.6409
▁cybernetics	-11.6409
▁sw	-11.6411
▁yellow	-11.6423
▁continuity	-11.6424
▁compress	-11.6424
center	-11.6427
73–	-11.6429
act	-11.643
▁fitted	-11.643
gcn	-11.6431
▁speciffc	-11.6433
▁accomplish	-11.6436
conditional	-11.6437
▁mortality	-11.644
▁reliably	-11.644
▁swersky	-11.644
▁unchanged	-11.644
▁radiology	-11.644
▁imposing	-11.644
▁drastically	-11.644
3%	-11.6443
▁neal	-11.6443
▁sketches	-11.6444
▁compressing	-11.6444
distinguishable	-11.6445
▁regularize	-11.645
▁pl	-11.6452
▁meng	-11.6452
▁associate	-11.6454
▁hal	-11.6454
▁probable	-11.6455
dp	-11.6458
▁travel	-11.6459
73	-11.646
▁realized	-11.646
1–3	-11.6462
])	-11.6466
name	-11.6466
▁terminal	-11.6467
▁associations	-11.6469
▁likewise	-11.6473
ili	-11.6473
▁ours	-11.6474
▁4.4	-11.6475
node	-11.6481
▁relax	-11.6483
▁forget	-11.649
cat	-11.6505
▁dividing	-11.6506
▁pereira	-11.6506
▁samuel	-11.6506
▁volodymyr	-11.6506
▁francisco	-11.6506
▁gordon	-11.6506
▁grateful	-11.6506
▁barham	-11.6506
▁guez	-11.6506
ä	-11.6507
▁pathology	-11.6507
▁buffer	-11.6507
▁concerning	-11.6511
▁cd	-11.6516
▁differentiate	-11.652
scores	-11.6525
▁pulmonary	-11.6526
▁numerically	-11.6527
ire	-11.6529
▁68	-11.653
▁directional	-11.653
▁surgery	-11.6536
▁lars	-11.6538
tal	-11.6555
▁squad	-11.6558
rad	-11.6561
▁attain	-11.6565
esh	-11.6566
▁peaks	-11.6566
▁rankings	-11.6568
▁malignant	-11.6572
▁langevin	-11.6572
▁specifies	-11.6572
▁leaving	-11.6573
▁storing	-11.6573
▁belongie	-11.6573
▁merely	-11.6574
definite	-11.6577
▁slide	-11.6581
▁luke	-11.6581
▁print	-11.6582
76	-11.6584
classifier	-11.6584
processed	-11.6585
lev	-11.6585
dnns	-11.6587
▁wgan	-11.6596
▁subgraph	-11.6604
▁miller	-11.6604
▁occurrence	-11.6608
▁cs	-11.6609
layers	-11.6609
▁completed	-11.6612
even	-11.6617
my	-11.6617
▁ser	-11.6621
▁insert	-11.6621
65	-11.6622
▁superpixels	-11.6624
3–3	-11.6628
12,	-11.663
161	-11.663
▁potentials	-11.6632
▁cycles	-11.6634
▁rev	-11.6639
▁ostrovski	-11.664
▁sentinel	-11.664
commerce	-11.664
▁hazan	-11.664
▁gabor	-11.664
acl	-11.6641
▁müller	-11.6642
▁upsampling	-11.6647
rigid	-11.6652
▁pmlr	-11.6653
▁clique	-11.6654
▁evaluates	-11.6657
▁analyse	-11.6658
emnlp	-11.6661
▁95%	-11.6665
▁53	-11.6665
▁disagreement	-11.6667
▁innovation	-11.6667
▁client	-11.6667
”).	-11.6677
▁assist	-11.6678
▁win	-11.6682
bf	-11.669
ala	-11.6691
▁stand	-11.6693
ator	-11.6695
param	-11.6697
▁periods	-11.6697
▁dahl	-11.6701
▁fpga	-11.6702
▁pronunciation	-11.6703
▁fuse	-11.6703
▁acc	-11.6704
▁nesterov	-11.6707
▁vocabularies	-11.6707
▁composing	-11.6707
▁reproducing	-11.6707
▁rewritten	-11.6709
baum	-11.6709
▁moderate	-11.6711
▁deformations	-11.6712
▁po	-11.6713
▁zhi	-11.6718
ned	-11.6718
▁successes	-11.672
ita	-11.672
▁talk	-11.6721
▁relaxed	-11.6722
relational	-11.6725
▁distinguishing	-11.6725
▁antonio	-11.673
van	-11.6736
▁scanner	-11.6736
▁rand	-11.6736
▁cart	-11.6739
greedy	-11.674
▁soon	-11.674
mf	-11.6741
▁optimizers	-11.6742
002	-11.6743
▁attacker	-11.6747
user	-11.6748
▁15:	-11.675
ris	-11.6752
des	-11.6754
▁monotonic	-11.6757
▁male	-11.6763
ative	-11.6774
▁interior	-11.6775
▁collobert	-11.6775
▁cheung	-11.6775
▁division	-11.6775
23,	-11.6776
▁france	-11.6777
dy	-11.678
▁augmenting	-11.6784
▁papernot	-11.6796
under	-11.68
▁negligible	-11.6801
96	-11.6807
▁1097–1105,	-11.6809
▁calibrated	-11.6809
project	-11.6812
dia	-11.6815
▁mtl	-11.6816
▁gr	-11.6817
robust	-11.6818
ide	-11.6822
▁schneider	-11.6822
▁textures	-11.6828
shan	-11.6831
kernel	-11.6839
▁(4	-11.6839
▁intell	-11.6841
▁enabled	-11.6841
pm	-11.6841
▁circular	-11.6844
▁penalties	-11.6844
▁memories	-11.6844
▁kalman	-11.6844
▁tokenization	-11.6846
▁leaky	-11.6846
▁multiplying	-11.6847
61	-11.6847
▁latex	-11.6849
ichi	-11.6849
▁manage	-11.6849
ball	-11.6849
rama	-11.6851
▁iff	-11.6852
▁tech	-11.6852
▁pop	-11.6857
▁samy	-11.6858
robot	-11.6859
▁retraining	-11.6861
yer	-11.6862
ub	-11.6865
▁leskovec	-11.6865
▁2006	-11.6867
token	-11.6868
ick	-11.6868
fully	-11.687
▁populations	-11.687
qr	-11.6871
▁stan	-11.6874
▁cortical	-11.6875
512	-11.6875
▁distinctive	-11.6876
▁agnostic	-11.688
▁optics	-11.6882
rbm	-11.6882
average	-11.6886
ric	-11.6889
bb	-11.689
rst	-11.6895
▁relie	-11.6896
▁tong	-11.6896
approximation	-11.6898
dense	-11.6898
▁communicate	-11.69
▁snr	-11.6902
▁beliefs	-11.6903
▁award	-11.6904
▁evident	-11.6913
▁cognition	-11.6913
▁danihelka	-11.6913
▁fft	-11.6913
▁regularisation	-11.6913
▁laser	-11.6914
ging	-11.6918
▁rbm	-11.6918
▁boosted	-11.6919
relates	-11.6922
▁identically	-11.6924
▁female	-11.6924
▁defenses	-11.693
▁grosse	-11.693
4)	-11.6931
ial	-11.6932
2000	-11.6937
▁cbow	-11.6938
▁operational	-11.6939
▁remarks	-11.694
▁tie	-11.6941
▁divergences	-11.6945
▁del	-11.6951
▁sensory	-11.6952
ons	-11.6958
classification	-11.6961
~~	-11.6964
directed	-11.6967
▁distribute	-11.697
▁alphabet	-11.6971
▁)(	-11.6974
▁monitor	-11.6974
▁hot	-11.6974
▁ending	-11.6979
▁cope	-11.6981
▁goldberg	-11.6981
▁kronecker	-11.6982
▁ranzato	-11.6982
▁reserved	-11.6982
▁deformable	-11.6982
▁remember	-11.6982
▁openreview	-11.6983
▁unbounded	-11.6983
▁lan	-11.6983
▁affective	-11.6983
▁maximized	-11.6986
convolution	-11.6989
▁lexicons	-11.699
▁centre	-11.6992
fast	-11.6992
▁bu	-11.6992
▁dy	-11.6992
ku	-11.6995
ros	-11.6996
▁noises	-11.6998
▁na	-11.7001
images	-11.7003
600	-11.7006
sat	-11.7007
aligned	-11.7007
▁movements	-11.7007
press	-11.7009
▁ku	-11.701
▁clipping	-11.7014
▁byte	-11.7015
▁adversarially	-11.7017
mel	-11.7021
▁carl	-11.7022
%	-11.7034
tor	-11.7041
▁cr	-11.7048
35–	-11.7051
▁hierarchies	-11.7052
▁ontologies	-11.7052
▁possibilities	-11.7052
▁univariate	-11.7052
▁preprocessed	-11.7056
▁⋅|	-11.7057
augmented	-11.7059
region	-11.7062
▁overfit	-11.7062
▁append	-11.7066
gh	-11.7069
1–7	-11.707
á	-11.7072
del	-11.7072
▁dct	-11.7074
▁nsf	-11.7074
unc	-11.7075
▁nm	-11.7076
▁bpe	-11.7079
block	-11.7079
▁qz	-11.708
hre	-11.7083
(12):	-11.7086
13,	-11.7091
▁cite	-11.7093
▁websites	-11.7097
▁placing	-11.7097
instance	-11.71
lar	-11.7102
▁((	-11.7102
▁editing	-11.7105
▁59	-11.7105
▁170	-11.7106
organ	-11.7108
▁pointwise	-11.7112
ks	-11.7113
▁'	-11.7114
▁discharge	-11.7116
▁propagate	-11.7117
play	-11.7121
▁dissimilar	-11.7122
▁gumbel	-11.7122
▁spearman	-11.7122
▁zoubin	-11.7123
▁sigir	-11.7123
▁stick	-11.7123
16,	-11.7125
ew	-11.7126
▁broader	-11.7126
▁draws	-11.7127
▁protected	-11.7127
eng	-11.713
gs	-11.7132
▁elad	-11.7134
▁standardized	-11.7135
lipschitz	-11.7139
▁tradeoff	-11.7145
gov	-11.7149
▁receiver	-11.7151
▁packages	-11.7155
▁queue	-11.7163
▁lagrange	-11.7171
hui	-11.7171
awa	-11.7172
▁vis	-11.7172
▁3.5	-11.7175
▁sin	-11.7176
▁clark	-11.7177
▁vulnerable	-11.7182
▁discard	-11.7186
▁pred	-11.7186
elli	-11.7188
▁84	-11.7188
▁compatibility	-11.7193
▁matthieu	-11.7193
▁mitchell	-11.7193
▁optimistic	-11.7193
▁pennington	-11.7193
▁diameter	-11.7193
▁bartlett	-11.7193
▁goyal	-11.7193
▁identities	-11.7193
▁unobserved	-11.7194
▁conversely	-11.7194
▁reordering	-11.7194
▁guyon	-11.7194
▁watermark	-11.7195
ended	-11.7196
▁accomplished	-11.7197
▁cyclegan	-11.72
▁synchronous	-11.7201
▁excluded	-11.7203
▁howard	-11.7205
▁cubic	-11.7209
▁aligning	-11.721
▁770–778,	-11.7216
▁delayed	-11.722
▁insertion	-11.7225
ade	-11.7225
▁wong	-11.7225
1–12	-11.7228
▁race	-11.7229
imagenet	-11.7235
inspired	-11.7236
▁interference	-11.7237
▁genres	-11.7245
owing	-11.7246
-9	-11.7251
▁fold	-11.7253
activation	-11.7255
cluster	-11.7256
don	-11.7258
▁81	-11.7264
▁agrawal	-11.7265
▁dumitru	-11.7265
▁nonetheless	-11.7265
▁snoek	-11.7265
▁ioannis	-11.7265
▁gathered	-11.7267
▁complexities	-11.7268
▁slope	-11.7268
▁lake	-11.7273
metric	-11.7277
▁grade	-11.7282
▁agree	-11.7284
▁tl	-11.7285
▁cf	-11.7294
loop	-11.7297
▁ka	-11.7301
rom	-11.7302
fp	-11.7302
▁border	-11.7303
eccv	-11.7303
▁stain	-11.7303
▁intriguing	-11.7303
color	-11.7306
automatic	-11.7306
cross	-11.7307
small	-11.7309
▁sat	-11.7309
cg	-11.7309
▁(2009)	-11.731
▁optic	-11.731
sense	-11.7311
–17	-11.7316
3.0	-11.7316
▁temporally	-11.7317
eur	-11.7318
tv	-11.7329
bel	-11.7329
4–6	-11.7332
▁continues	-11.7334
▁capsules	-11.7336
▁deffnition	-11.7337
▁opportunity	-11.7337
▁pursuit	-11.7337
▁women	-11.7337
▁trading	-11.7337
▁fundus	-11.7337
rie	-11.7337
▁compose	-11.7337
▁argmax	-11.7338
▁001	-11.7338
kov	-11.7339
▁inserted	-11.734
cd	-11.7342
▁caltech	-11.7342
▁explores	-11.7344
▁secondary	-11.7346
dynamic	-11.7346
variable	-11.7348
ible	-11.7349
(3)	-11.7354
▁came	-11.7358
fu	-11.7359
▁isotropic	-11.736
▁priority	-11.7364
(2	-11.7364
arm	-11.7367
ella	-11.7367
bp	-11.7367
▁contradiction	-11.7369
35,	-11.7369
lib	-11.7371
▁cup	-11.738
▁0.6	-11.7387
▁counterparts	-11.7387
▁votes	-11.7387
▁informed	-11.7388
fn	-11.7388
dd	-11.739
▁anderson	-11.7391
▁proceeds	-11.7392
▁searches	-11.7392
▁engines	-11.7393
▁noticed	-11.7394
squared	-11.7398
}~	-11.74
▁1.5	-11.7401
▁tied	-11.7401
▁cuts	-11.7403
▁reporting	-11.7407
▁leveraged	-11.7408
▁engagement	-11.7409
▁regularities	-11.741
▁systematically	-11.741
▁attached	-11.741
▁regularity	-11.7411
▁danilo	-11.7411
▁reflection	-11.7413
82	-11.7415
▁incorrectly	-11.7417
▁mv	-11.7418
▁turk	-11.7425
win	-11.7427
▁acting	-11.743
▁(10	-11.7431
neighbor	-11.7431
89	-11.7438
ese	-11.744
soft	-11.7441
▁≪	-11.7443
ó	-11.7448
inthe	-11.7451
ama	-11.7451
▁averages	-11.7454
▁bigrams	-11.7457
process	-11.7459
▁reactions	-11.746
▁rotated	-11.7466
nns	-11.7468
designed	-11.7475
pn	-11.7478
▁resolutions	-11.748
.2.	-11.748
risk	-11.748
well	-11.7482
¡	-11.7482
▁anguelov	-11.7482
▁breiman	-11.7482
▁brought	-11.7482
bianchi	-11.7482
▁brightness	-11.7483
than	-11.7483
▁differentially	-11.7485
▁aware	-11.7487
▁binomial	-11.7488
▁subtasks	-11.7489
▁mle	-11.7491
▁slowly	-11.7492
▁concentrate	-11.7493
▁1987.	-11.7494
▁played	-11.7495
ux	-11.7495
▁fixing	-11.7495
lex	-11.7498
▁allen	-11.7504
▁mirror	-11.7507
pf	-11.7512
▁fragment	-11.7512
▁30%	-11.7513
▁confirmed	-11.7514
▁0.4	-11.7517
▁warm	-11.752
morph	-11.7521
▁grad	-11.7522
20,	-11.753
▁animals	-11.7533
38,	-11.7534
▁wavelets	-11.7537
▁(2008)	-11.7538
▁quantifying	-11.755
ref	-11.755
▁pra	-11.7551
nz	-11.7553
▁footprint	-11.7554
lam	-11.7555
▁meteor	-11.7555
▁rdf	-11.7555
conditioned	-11.7555
▁gulcehre	-11.7556
▁adaboost	-11.7556
▁ternary	-11.7556
▁truly	-11.7556
▁monotonically	-11.7556
google	-11.7556
▁unbalanced	-11.7556
▁occurred	-11.7557
studied	-11.7557
recall	-11.7557
▁rendered	-11.756
theorem	-11.7561
▁subsampling	-11.7562
-18	-11.7568
▁decoders	-11.7569
▁reconstructing	-11.7571
▁planes	-11.7571
▁neil	-11.7571
▁2001	-11.7572
ws	-11.7573
▁andrea	-11.7578
▁matt	-11.7585
▁accommodate	-11.7585
▁op	-11.7588
▁participant	-11.759
▁classi	-11.759
▁rights	-11.7602
orn	-11.7604
▁weeks	-11.7607
▁repair	-11.7609
unit	-11.7613
acy	-11.7614
▁drops	-11.762
▁bishop	-11.763
▁mathieu	-11.763
▁sermanet	-11.763
▁severity	-11.763
▁uncertainties	-11.763
▁pd	-11.7631
▁submit	-11.7631
▁qu	-11.7632
▁won	-11.7633
similar	-11.764
ν	-11.7642
▁rock	-11.7642
▁contributes	-11.7645
ssim	-11.7646
▁indexes	-11.7646
▁shortcomings	-11.765
▁reject	-11.7656
sel	-11.766
ec	-11.7661
▁qui	-11.7667
▁projecting	-11.7671
ble	-11.7673
(9)	-11.7675
▁multiscale	-11.7679
▁posit	-11.7679
▁spectrogram	-11.7681
mes	-11.7688
▁hsu	-11.7689
▁grammars	-11.7693
ida	-11.7693
▁slides	-11.7701
▁elmo	-11.7701
▁5)	-11.7703
▁mine	-11.7703
▁logarithm	-11.7704
▁dempster	-11.7704
▁kinect	-11.7704
shwartz	-11.7704
▁ronneberger	-11.7704
▁ensuring	-11.7704
▁wagner	-11.7705
▁handwriting	-11.7705
2.0	-11.7705
▁classifies	-11.7705
74	-11.7712
▁marginals	-11.7714
▁card	-11.7714
▁termed	-11.7716
95	-11.7716
▁suffices	-11.7718
das	-11.7723
▁symptoms	-11.7724
▁office	-11.7725
▁dim	-11.7728
▁axioms	-11.7728
11.	-11.7728
▁indirect	-11.7731
▁13.	-11.7731
▁contributed	-11.7732
yes	-11.7733
▁detects	-11.7738
these	-11.774
▁miss	-11.7744
▁mn	-11.7744
119	-11.7748
▁sem	-11.7749
statistical	-11.7751
▁marks	-11.7751
ess	-11.7753
eh	-11.7761
▁74	-11.7764
▁uni	-11.7768
▁det	-11.7768
pw	-11.7776
▁cox	-11.7777
▁63	-11.7778
board	-11.7779
▁nitish	-11.778
▁russell	-11.778
▁house	-11.7782
sar	-11.7782
tin	-11.7782
79	-11.7783
ave	-11.7783
▁fifth	-11.7791
▁16:	-11.7795
ghz	-11.78
▁suppression	-11.7803
after	-11.7807
roc	-11.7813
realistic	-11.7814
lc	-11.7814
say	-11.7815
▁jump	-11.7827
nik	-11.7833
consistency	-11.7837
since	-11.7839
back	-11.784
▁reinforce	-11.7843
(5	-11.7846
▁hill	-11.7847
▁rois	-11.7847
▁suppress	-11.7847
ucb	-11.7849
▁600	-11.7849
▁living	-11.785
▁justin	-11.7853
▁examining	-11.7855
▁shazeer	-11.7855
▁sugiyama	-11.7855
▁tremendous	-11.7855
▁nothing	-11.7856
▁gym	-11.7856
▁treatments	-11.7859
▁dominated	-11.7862
▁reflected	-11.7864
▁converting	-11.7867
▁chemistry	-11.7867
asa	-11.7869
▁disk	-11.7871
▁scientists	-11.7874
▁nice	-11.7874
▁practically	-11.7884
▁97	-11.7884
6–3	-11.7888
003	-11.7888
▁interpretations	-11.7888
between	-11.7891
▁poole	-11.7893
▁integrates	-11.7894
mit	-11.7899
▁elbo	-11.7899
▁®	-11.7902
driving	-11.7903
adversarial	-11.7904
▁ref	-11.791
▁soc	-11.7913
erent	-11.7914
▁visit	-11.7919
▁nie	-11.792
▁pivot	-11.7921
some	-11.7925
▁flops	-11.7926
▁victor	-11.7931
nal	-11.7932
▁methodologies	-11.7932
▁bagging	-11.7932
▁piotr	-11.7933
18.	-11.7934
oni	-11.7936
▁cue	-11.7942
▁acknowledgement	-11.7943
▁solar	-11.7943
▁kiros	-11.7947
inger	-11.7953
▁zou	-11.7953
uni	-11.7956
ries	-11.7958
▁stroke	-11.7965
▁thousand	-11.7969
▁compiler	-11.797
▁cesa	-11.7971
▁instrument	-11.7971
df	-11.7976
▁argued	-11.798
▁aggressive	-11.798
▁inefficient	-11.7985
written	-11.7987
175	-11.7996
▁imagine	-11.7996
▁crawl	-11.8001
▁extrinsic	-11.8009
▁nowadays	-11.8009
▁offensive	-11.8009
▁recurrence	-11.8009
▁srebro	-11.8009
▁qin	-11.8014
▁lai	-11.8018
▁failed	-11.802
▁checked	-11.802
▁kinetics	-11.8021
rc	-11.8022
▁uniquely	-11.8034
▁specially	-11.8037
0.5	-11.804
rit	-11.8045
bert	-11.8045
▁judgment	-11.8046
▁á	-11.8053
example	-11.8055
▁pc	-11.8056
ef	-11.806
78	-11.806
embeddings	-11.806
56,	-11.806
era	-11.8062
▁exploitation	-11.8065
▁lacks	-11.8066
▁facilitates	-11.8069
pan	-11.807
power	-11.8077
▁thin	-11.8078
black	-11.8078
▁realize	-11.8079
▁secure	-11.8081
▁ffnd	-11.8083
▁alexandre	-11.8086
▁elegant	-11.8086
▁bootstrapping	-11.8086
▁devote	-11.8087
▁1986.	-11.8087
▁coates	-11.8087
▁putting	-11.8087
▁binarized	-11.8089
▁14.	-11.8092
152	-11.8092
character	-11.8094
lstms	-11.8095
54	-11.81
▁processor	-11.8104
▁cleaning	-11.8105
iri	-11.8109
▁motivate	-11.8112
17,	-11.8114
0–3	-11.8114
▁convention	-11.8122
▁blurred	-11.8122
met	-11.8123
▁ecg	-11.8126
▁rmsprop	-11.8127
▁opportunities	-11.8128
bias	-11.8133
filter	-11.8134
▁duc	-11.8138
▁nathan	-11.8146
▁flip	-11.8153
▁cam	-11.8156
normalization	-11.8157
▁motions	-11.8158
▁francis	-11.8164
▁bridging	-11.8164
▁satheesh	-11.8164
sz	-11.8164
▁monga	-11.8164
▁emojis	-11.8165
η	-11.8171
▁resized	-11.8175
▁decompositions	-11.8175
via	-11.8176
▁electrical	-11.8181
ring	-11.8184
▁sd	-11.8186
▁alter	-11.8187
81	-11.8188
▁hmms	-11.8189
▁evolve	-11.8191
▁pain	-11.8193
▁hog	-11.8193
▁pathways	-11.8197
ory	-11.8202
ology	-11.8206
cz	-11.8211
▁war	-11.8218
▁glass	-11.822
▁regularizers	-11.8223
99–	-11.8224
▁spin	-11.8229
▁karl	-11.8229
▁cartesian	-11.8231
▁ph	-11.8236
▁australia	-11.8236
▁setups	-11.8239
pool	-11.8243
▁prevalent	-11.8243
▁schapire	-11.8243
▁vasudevan	-11.8243
▁arguably	-11.8243
▁relating	-11.8243
▁tendency	-11.8243
(1-2):	-11.8243
▁nicholas	-11.8243
▁expertise	-11.8244
▁liao	-11.8245
▁compensate	-11.8245
▁gar	-11.8247
▁conformal	-11.8249
▁maximally	-11.825
bd	-11.8253
▁isolated	-11.8255
▁wind	-11.8255
▁sc	-11.8257
start	-11.8259
▁toronto	-11.8264
▁que	-11.8267
aud	-11.8267
▁adopting	-11.8269
▁traces	-11.8272
▁depict	-11.8275
▁penalizes	-11.8276
ij	-11.8279
▁pitch	-11.8279
▁isola	-11.8279
64,	-11.8286
▁pham	-11.8286
ach	-11.8287
▁cone	-11.8294
▁recovers	-11.8296
wer	-11.83
▁stepsize	-11.8301
▁forming	-11.8303
125	-11.8303
153	-11.8304
▁artificially	-11.8305
▁brand	-11.8306
bur	-11.8318
▁drawings	-11.8321
coming	-11.8321
▁ica	-11.8322
ious	-11.8322
▁episodic	-11.8322
▁satisfactory	-11.8322
▁taxonomy	-11.8322
▁[21]	-11.8322
▁unnecessary	-11.8322
▁unnumbered	-11.8323
▁widespread	-11.8323
▁linkage	-11.8324
▁discretized	-11.8326
▁sports	-11.8332
▁enforces	-11.8333
▁residuals	-11.8337
▁sn	-11.8337
▁sha	-11.8339
gr	-11.834
▁behave	-11.8342
cent	-11.8343
mdp	-11.8345
▁naacl	-11.8346
diagonal	-11.8347
▁formalize	-11.8351
135	-11.8351
width	-11.8352
▁completeness	-11.8353
15,	-11.8354
accuracy	-11.8355
▁photograph	-11.8357
▁fusing	-11.8357
▁doctors	-11.8358
▁knn	-11.8358
mcmc	-11.8358
21,	-11.8359
lv	-11.8359
▁worked	-11.8359
▁bear	-11.8361
▁tiles	-11.8362
▁deletion	-11.8362
1.0	-11.8362
▁xy	-11.8362
▁waveform	-11.8363
▁eyes	-11.8363
(10):	-11.8366
clustering	-11.837
▁abilities	-11.8371
eser	-11.8372
▁phonetic	-11.8384
last	-11.8384
tex	-11.8387
145	-11.8388
▁cache	-11.8391
▁pen	-11.8391
▁cae	-11.8393
▁(2011).	-11.8395
▁prototypes	-11.8396
▁king	-11.8397
▁hassabis	-11.8402
▁maddison	-11.8402
▁sarcasm	-11.8402
▁spurious	-11.8402
▁stimulus	-11.8402
▁spiking	-11.8402
▁karol	-11.8403
▁fl	-11.8403
▁experiences	-11.8403
▁sanjeev	-11.8403
▁causing	-11.8403
▁rejection	-11.8403
▁sit	-11.8405
▁cyclic	-11.8407
bl	-11.8408
▁forecast	-11.8408
▁julian	-11.8409
29,	-11.8414
dt	-11.8414
22,	-11.8416
▁mot	-11.8416
▁100%	-11.8418
rus	-11.8423
▁inspiration	-11.8423
▁yun	-11.8424
▁77	-11.8425
tro	-11.8428
ven	-11.8428
▁hashtags	-11.843
ova	-11.8438
nce	-11.8439
▁truncation	-11.8439
▁â	-11.8439
▁correlate	-11.8441
▁corruption	-11.8442
▁judgments	-11.8444
▁datapoints	-11.8451
▁deploy	-11.8458
▁forcing	-11.846
▁0;	-11.8463
▁finer	-11.8468
band	-11.8478
▁alessandro	-11.8483
▁jonathon	-11.8483
▁simplifies	-11.8483
▁neumann	-11.8483
▁moses	-11.8483
▁gool	-11.8485
▁ffnal	-11.8488
▁concretely	-11.8489
▁partly	-11.8489
▁duplicate	-11.8491
square	-11.8493
▁incrementally	-11.8494
▁degenerate	-11.8494
▁walking	-11.8496
5.0	-11.8497
▁lookup	-11.8498
gpu	-11.8501
gmm	-11.8501
rays	-11.8504
▁consequences	-11.8518
400	-11.8518
11,	-11.8519
▁peer	-11.852
▁laws	-11.8521
layered	-11.8522
gate	-11.853
▁ying	-11.853
▁loading	-11.8533
▁driver	-11.8533
breaking	-11.8536
▁62	-11.8538
-12	-11.8539
led	-11.8541
german	-11.8542
port	-11.8543
mixed	-11.8545
js	-11.8552
▁gabriel	-11.8553
▁bf	-11.8554
3)	-11.8556
ions	-11.8556
index	-11.8561
▁2672–2680,	-11.8564
▁concluding	-11.8564
▁council	-11.8564
▁terminology	-11.8564
▁ubiquitous	-11.8564
▁discontinuous	-11.8564
▁geoscience	-11.8564
▁dally	-11.8568
▁gtx	-11.8569
ix	-11.8569
▁deleted	-11.8572
▁duchi	-11.8573
ane	-11.8577
ara	-11.8578
lines	-11.8581
▁randomization	-11.8581
42,	-11.8585
19,	-11.8588
▁axes	-11.8593
▁consumer	-11.8595
ntm	-11.8601
▁grids	-11.8602
▁owner	-11.8603
uz	-11.8604
207	-11.8605
▁dots	-11.8606
▁gesture	-11.8606
▁decode	-11.8607
mod	-11.8608
▁inexact	-11.8609
▁kohli	-11.861
{}	-11.8611
▁nash	-11.8611
▁exclusive	-11.8611
▁te	-11.8614
192	-11.8621
▁ends	-11.8622
▁paris	-11.8626
▁observer	-11.8627
▁resort	-11.8627
cb	-11.8628
▁bas	-11.8632
adaptation	-11.8634
▁fi	-11.8638
elm	-11.8638
▁2012,	-11.8641
▁nous	-11.8642
ice	-11.8642
chip	-11.8643
▁66	-11.8645
▁doubly	-11.8646
▁emphasis	-11.8646
▁guestrin	-11.8646
▁soumith	-11.8646
▁ultra	-11.8646
▁utilization	-11.8646
▁dilation	-11.8646
▁persistent	-11.8646
)).	-11.8648
1–10	-11.865
▁adjusting	-11.8655
▁repeating	-11.8658
cor	-11.8663
▁route	-11.8677
▁forced	-11.8679
▁ja	-11.8681
▁cham	-11.8684
nmf	-11.8688
▁recipe	-11.8688
uci	-11.869
▁professional	-11.869
ata	-11.8693
▁activated	-11.8693
many	-11.8699
▁exposed	-11.87
▁drugs	-11.8703
uo	-11.8704
▁roads	-11.8708
▁polar	-11.8712
7–4	-11.8717
aco	-11.8717
▁prefix	-11.8721
tracking	-11.8722
meter	-11.8722
▁india	-11.8723
▁dotted	-11.8723
47–	-11.8728
▁excess	-11.8729
▁british	-11.8729
▁jozefowicz	-11.8729
▁russakovsky	-11.8729
▁sepsis	-11.8729
▁anything	-11.8729
▁cutting	-11.873
▁spatiotemporal	-11.873
▁spent	-11.8731
wo	-11.8735
▁perceived	-11.8738
▁picking	-11.8742
▁expressing	-11.8744
▁rectangular	-11.8748
ort	-11.8756
▁chart	-11.876
▁instability	-11.8763
005	-11.8764
nlm	-11.8765
▁dist	-11.877
▁disadvantage	-11.8772
▁keyphrase	-11.8773
▁inferences	-11.878
▁rst	-11.8783
▁stabilize	-11.8784
▁servers	-11.879
181	-11.8794
rv	-11.8804
▁america	-11.8807
▁thorough	-11.881
▁desjardins	-11.8812
▁glaucoma	-11.8812
▁stimuli	-11.8812
▁advertising	-11.8812
▁scanned	-11.8812
▁spark	-11.8813
▁wright	-11.8814
▁rain	-11.8814
▁marcus	-11.8821
▁nns	-11.8822
▁snli	-11.8826
103	-11.8833
▁visited	-11.8835
asr	-11.8839
▁kar	-11.8841
olo	-11.8847
itz	-11.8848
▁carlos	-11.8849
▁attentional	-11.885
▁animation	-11.8851
_1	-11.8852
▁5000	-11.8855
mu	-11.8856
▁rectifier	-11.8856
▁princeton	-11.8858
tes	-11.8867
▁unigrams	-11.8868
ich	-11.8871
ay	-11.8877
▁aug	-11.8883
▁concave	-11.8883
une	-11.8885
183	-11.8888
▁dialogs	-11.889
vid	-11.8891
▁cca	-11.8895
▁dosovitskiy	-11.8896
▁zitnick	-11.8896
▁became	-11.8896
▁yangqing	-11.8897
▁minority	-11.8897
▁67	-11.8898
▁initializing	-11.89
rule	-11.89
uch	-11.8901
▁sohl	-11.8907
qi	-11.8908
202	-11.8911
▁iterated	-11.8914
ung	-11.8914
▁orthonormal	-11.8919
self	-11.8921
performing	-11.8921
year	-11.8923
▁zone	-11.8928
14,	-11.8929
ori	-11.8932
▁vocal	-11.8934
▁visemes	-11.8935
eas	-11.8935
▁orientations	-11.8937
▁hit	-11.8937
hara	-11.894
eo	-11.8943
▁cas	-11.8943
▁organ	-11.8946
▁apple	-11.8959
▁2011,	-11.896
-20	-11.8962
▁doc	-11.8963
rk	-11.8967
mus	-11.8967
avi	-11.897
155	-11.8972
▁minimizers	-11.8977
▁initializations	-11.898
▁biometrika	-11.8981
▁dauphin	-11.8981
▁ourselves	-11.8981
▁impractical	-11.8981
▁springenberg	-11.8981
▁martens	-11.8981
ust	-11.8981
▁lifelong	-11.8981
▁passive	-11.8983
▁causality	-11.8984
▁handcrafted	-11.8989
▁weaker	-11.8991
aro	-11.8994
▁resistance	-11.8994
exp	-11.8994
▁zeng	-11.8997
▁interventions	-11.9004
▁88	-11.9004
▁synchronization	-11.9007
▁topical	-11.901
▁112	-11.9017
▁resembles	-11.9018
gt	-11.9019
▁fm	-11.9025
▁[]	-11.9029
ken	-11.9033
averaged	-11.9035
▁circles	-11.9042
40,	-11.9045
▁logs	-11.9048
true	-11.9053
▁timesteps	-11.9055
▁planar	-11.9058
(1),	-11.906
ably	-11.9061
▁il	-11.9063
▁multiplications	-11.9064
▁adequate	-11.9064
bfgs	-11.9064
▁kakade	-11.9066
▁granularity	-11.9067
▁prototypical	-11.9067
▁foreign	-11.9067
▁chopra	-11.9067
▁snps	-11.9067
▁tabular	-11.9067
▁seminal	-11.9068
hm	-11.9068
▁unary	-11.907
50,	-11.9071
▁hz	-11.9072
law	-11.9072
▁thing	-11.9075
▁yoon	-11.9076
adam	-11.9076
▁retaining	-11.9077
▁timing	-11.9079
hs	-11.908
280	-11.9081
▁maria	-11.9084
dev	-11.9086
5)	-11.9094
▁fps	-11.9094
results	-11.9097
▁abbreviations	-11.9097
▁rna	-11.91
erc	-11.9101
-101	-11.9102
▁mir	-11.9104
▁regimes	-11.9104
▁(6)	-11.911
fidelity	-11.9115
kan	-11.9119
detection	-11.912
typically	-11.9121
▁ding	-11.9134
given	-11.9135
▁(2010).	-11.9137
ér	-11.9139
▁toy	-11.9141
▁adopts	-11.9143
8%	-11.9145
▁cheap	-11.9147
▁abnormal	-11.9152
▁hadamard	-11.9153
▁annotating	-11.9153
▁farhadi	-11.9153
▁lanctot	-11.9153
▁respiratory	-11.9153
▁universe	-11.9153
▁dumoulin	-11.9153
▁svhn	-11.9153
▁shalev	-11.9153
▁visibility	-11.9153
▁foster	-11.9153
▁acceptance	-11.9153
▁hiero	-11.9153
▁broken	-11.9153
▁surpassing	-11.9155
▁centralized	-11.9156
comp	-11.9159
▁sorting	-11.916
19.	-11.9161
▁birds	-11.9164
▁turner	-11.9164
▁synonyms	-11.917
138	-11.9171
▁spam	-11.9174
▁listing	-11.9175
▁bai	-11.9176
▁radiologists	-11.918
aux	-11.9184
▁multiview	-11.9184
▁exclude	-11.9187
▁gui	-11.9189
▁intention	-11.919
∇	-11.9194
▁5.3	-11.9195
▁tagged	-11.9195
▁sql	-11.9197
deals	-11.9199
▁blob	-11.9199
▁stem	-11.9199
▁permission	-11.92
match	-11.9201
▁srl	-11.9202
▁influences	-11.9203
steps	-11.9207
nf	-11.921
24,	-11.921
kel	-11.9214
▁clauses	-11.9215
▁begins	-11.9218
▁hai	-11.922
▁propositions	-11.9221
without	-11.9225
▁anal	-11.9225
58,	-11.9231
▁syst	-11.9232
▁antoine	-11.9233
124	-11.9235
oo	-11.9237
▁ghemawat	-11.924
▁malware	-11.924
▁turkish	-11.924
▁inherit	-11.924
▁clarity	-11.924
als	-11.924
▁reflectance	-11.924
▁batra	-11.9241
▁lock	-11.9241
▁unrelated	-11.9243
-19	-11.9245
▁orange	-11.9245
ere	-11.9246
205	-11.9246
▁oh	-11.9246
▁evolved	-11.9253
▁concentrated	-11.9255
▁anna	-11.9255
▁ehr	-11.9257
txt	-11.9258
⟨	-11.9259
player	-11.9259
▁vggnet	-11.9263
▁mei	-11.9266
bs	-11.9269
▁98	-11.9275
2:	-11.9279
ensemble	-11.928
zo	-11.928
▁buy	-11.9281
▁dom	-11.9281
▁encounter	-11.9284
▁roger	-11.9287
▁adjustment	-11.9287
▁tobias	-11.9293
oct	-11.9294
85	-11.9295
▁cc	-11.9297
▁intend	-11.9299
math	-11.9299
different	-11.9314
▁justified	-11.9314
relevant	-11.9317
matic	-11.9317
0.1	-11.9318
▁para	-11.932
▁sparsely	-11.932
enc	-11.9323
▁ambient	-11.9327
▁climate	-11.9327
▁hasselt	-11.9327
▁rabinovich	-11.9327
▁beauty	-11.9327
▁fluency	-11.9327
▁ashish	-11.9327
71	-11.9328
▁educational	-11.933
▁colt	-11.9335
▁bright	-11.9335
▁gregory	-11.9335
▁grey	-11.9336
▁simplifying	-11.9338
▁geometrical	-11.9338
▁frontiers	-11.9339
▁110	-11.9343
-6	-11.9344
▁isard	-11.9345
tar	-11.9348
ack	-11.9351
▁tumors	-11.9351
▁likelihoods	-11.9355
27,	-11.9356
aa	-11.9356
▁replaces	-11.9358
▁cities	-11.9359
▁tour	-11.936
▁2004	-11.9364
pel	-11.9367
patient	-11.9375
▁narrative	-11.9376
▁constitutes	-11.9382
▁totally	-11.939
▁0.0	-11.9392
types	-11.9395
subject	-11.9404
str	-11.9412
:1409.1556	-11.9416
dickstein	-11.9416
▁heterogeneity	-11.9416
▁luxburg	-11.9416
▁aditya	-11.9416
▁spirit	-11.9416
▁curse	-11.9416
▁accessibility	-11.9416
▁dissimilarity	-11.9417
▁clothing	-11.9417
zu	-11.9417
▁levy	-11.9418
▁harnessing	-11.9418
newton	-11.942
▁olah	-11.9423
▁everywhere	-11.9423
cfm	-11.9424
▁grayscale	-11.9425
sv	-11.9428
▁dna	-11.9428
▁nair	-11.9429
196	-11.943
▁fox	-11.9431
133	-11.9433
rou	-11.9438
▁adjectives	-11.9444
generation	-11.9444
ali	-11.9445
214	-11.9452
▁gather	-11.9457
nia	-11.9458
▁94	-11.9463
▁heatmap	-11.9465
7):	-11.9468
▁eng	-11.947
▁supp	-11.9473
book	-11.9476
156	-11.9491
57–	-11.9492
109	-11.9497
▁imperfect	-11.9497
▁spec	-11.9498
227	-11.9499
▁schmid	-11.9499
▁fingerprints	-11.95
▁economics	-11.95
iter	-11.9501
maps	-11.9503
pack	-11.9504
▁equivariant	-11.9505
▁brevity	-11.9505
▁fernando	-11.9505
▁irving	-11.9505
▁metropolis	-11.9505
▁constituency	-11.9505
▁dieleman	-11.9505
▁expense	-11.9505
▁prostate	-11.9505
▁misclassified	-11.9505
▁douglas	-11.9505
▁leaderboard	-11.9505
▁koller	-11.9505
154	-11.9508
▁initialisation	-11.9508
▁ar	-11.9514
▁che	-11.9517
▁2015)	-11.9518
62	-11.9519
▁hundred	-11.952
vc	-11.9522
▁centroids	-11.9523
decomposition	-11.9526
▁ilsvrc	-11.9526
▁port	-11.9527
▁sk	-11.9527
-01	-11.9529
▁scarce	-11.9531
▁ongoing	-11.9532
▁reversible	-11.9532
▁scheduled	-11.9535
▁compete	-11.9542
▁trec	-11.9543
▁bot	-11.9544
▁];	-11.9545
▁die	-11.9545
▁preservation	-11.9547
▁mrf	-11.9548
tre	-11.9555
▁phv	-11.9557
grad	-11.9561
▁reviewed	-11.9561
162	-11.9564
▁conditionally	-11.9571
▁vb	-11.9573
▁pf	-11.9573
▁fo	-11.9575
bu	-11.9575
9–4	-11.9576
▁skill	-11.9585
leg	-11.9585
▁triangular	-11.9588
ego	-11.9589
▁cor	-11.9589
arch	-11.959
▁serious	-11.9593
1000	-11.9595
▁vijay	-11.9595
▁′|	-11.9595
▁abundance	-11.9595
▁anthony	-11.9595
▁decomposing	-11.9595
;1.5;1.	-11.9595
;1.3;1.	-11.9595
▁transductive	-11.9595
:1711.0	-11.9595
278	-11.9597
;1.7;1.	-11.9598
▁exclusively	-11.9598
▁revisiting	-11.9599
1.1;1.	-11.9599
▁paradigms	-11.9599
▁nist	-11.9601
▁integrals	-11.9602
ijcv	-11.9603
▁constraining	-11.9603
▁schri	-11.9606
▁formalized	-11.9611
ju	-11.9628
▁supplement	-11.9629
representation	-11.9629
▁actively	-11.9639
▁coin	-11.9648
pose	-11.9658
▁nl	-11.9659
wl	-11.9666
wan	-11.9671
emb	-11.9682
▁rao	-11.9683
▁rkhs	-11.9686
▁adversaries	-11.9686
▁executing	-11.9686
▁mishra	-11.9686
▁joulin	-11.9686
▁doctor	-11.9687
▁restrictive	-11.9687
▁asking	-11.9687
▁convergent	-11.9688
ever	-11.9693
▁optimally	-11.9695
models	-11.9696
med	-11.9697
▁jie	-11.9697
following	-11.9699
▁feb	-11.9703
▁lo	-11.9707
▁amongst	-11.971
▁2016)	-11.9711
▁70%	-11.9711
▁leo	-11.9712
fort	-11.9712
▁backend	-11.9713
▁arrays	-11.9714
▁equivariance	-11.9714
91	-11.9717
coded	-11.9719
▁soil	-11.9719
▁station	-11.972
eli	-11.9721
▁dates	-11.9722
nas	-11.9722
▁regional	-11.9724
▁enjoys	-11.9726
▁speckle	-11.9728
lg	-11.9732
parameterized	-11.9733
question	-11.9733
uti	-11.9733
▁enjoy	-11.9734
cho	-11.9734
▁visits	-11.9735
▁resemble	-11.9738
▁derivations	-11.9738
▁masking	-11.9739
2010	-11.9742
.2017.	-11.9744
dal	-11.9745
58	-11.9746
36,	-11.9748
▁optional	-11.9754
▁jk	-11.9754
▁radio	-11.9754
ification	-11.9756
write	-11.9758
▁rein	-11.9762
track	-11.9763
▁alec	-11.977
▁rotational	-11.977
concept	-11.9771
▁multiply	-11.9773
rpn	-11.9774
edge	-11.9776
▁dmitry	-11.9778
▁anatomy	-11.9778
▁disparate	-11.9778
▁necessity	-11.9778
▁parentheses	-11.9778
▁receiving	-11.9778
▁spacing	-11.9778
▁humor	-11.9778
▁potts	-11.9778
ttwi	-11.9778
▁dropped	-11.9778
▁scanning	-11.9778
organizing	-11.9779
shift	-11.978
▁corporation	-11.978
▁supply	-11.9782
▁connects	-11.9783
▁xue	-11.9785
2(3):	-11.9786
▁subsections	-11.979
▁100,000	-11.9791
▁83	-11.9795
:1511.0	-11.9797
▁collapsed	-11.9798
party	-11.9798
▁competitions	-11.98
▁viseme	-11.98
dip	-11.9802
83	-11.9805
▁programme	-11.981
▁portions	-11.9814
ao	-11.9827
▁replicate	-11.9828
▁examination	-11.983
friendly	-11.983
ations	-11.9833
▁82	-11.9834
▁propagating	-11.9835
▁emission	-11.9838
possibly	-11.984
▁xin	-11.984
maximization	-11.984
memory	-11.9842
▁`	-11.9842
▁roll	-11.9843
location	-11.9843
▁recognizer	-11.9845
“	-11.9847
▁nick	-11.9856
▁bib	-11.9868
▁appendices	-11.987
▁naïve	-11.987
▁revenue	-11.987
▁thirty	-11.987
▁xzopw	-11.987
▁japan	-11.9871
▁agency	-11.9871
mal	-11.9871
▁libsvm	-11.9871
▁zipf	-11.9871
▁subtraction	-11.9871
scaled	-11.9872
mac	-11.9872
▁summed	-11.9872
▁rec	-11.9872
▁ivo	-11.9872
▁bou	-11.9874
▁25%	-11.9874
▁deconvolutional	-11.9878
▁prices	-11.9878
▁©	-11.9878
▁cha	-11.9883
▁voters	-11.9883
rant	-11.9886
los	-11.9888
direct	-11.9891
▁seg	-11.9893
350	-11.9901
grant	-11.9905
▁speeds	-11.9908
28,	-11.9909
▁martingale	-11.9914
▁permutations	-11.9915
hat	-11.9915
zen	-11.9915
▁convey	-11.9921
▁exploratory	-11.9921
▁cohort	-11.9923
aff	-11.9928
▁cpus	-11.9939
▁translates	-11.994
▁ahead	-11.9943
spectral	-11.9943
science	-11.9947
robert	-11.9948
student	-11.9948
generating	-11.9949
maximum	-11.9949
ward	-11.995
mentioned	-11.995
lon	-11.995
corresponding	-11.9951
▁fang	-11.9959
▁255	-11.9961
▁audience	-11.9964
▁urtasun	-11.9964
▁cropping	-11.9964
▁spanned	-11.9964
▁baker	-11.9966
▁lamblin	-11.9966
▁friends	-11.9967
▁carlini	-11.997
▁sought	-11.9972
ure	-11.9978
mis	-11.998
182	-11.998
▁tracked	-11.9986
▁shed	-11.9987
▁georg	-11.9989
▁formats	-11.9989
segment	-11.999
▁dyer	-11.9992
▁contract	-11.9994
▁dcgan	-11.9994
▁lenet	-11.9995
▁diagrams	-11.9996
▁acyclic	-11.9996
-2017	-12.0001
▁month	-12.0002
⋅	-12.0004
active	-12.0009
ula	-12.0011
5–5	-12.0013
▁ap	-12.0017
▁reservoir	-12.0018
▁incident	-12.0018
▁chatbot	-12.0018
▁acknowledgment	-12.0018
▁amir	-12.0019
▁infant	-12.0019
▁bla	-12.0022
▁2017)	-12.0022
very	-12.0041
gap	-12.0043
event	-12.0051
ile	-12.0051
▁coded	-12.0052
sourced	-12.0054
▁hol	-12.0054
▁plug	-12.0055
▁logit	-12.0055
aistats	-12.0055
inverse	-12.0057
degree	-12.0057
selection	-12.0057
▁115	-12.0057
strongly	-12.0058
▁abundant	-12.0058
▁adadelta	-12.0058
▁brevdo	-12.0058
▁infinity	-12.0058
▁osindero	-12.0058
▁summarizing	-12.0058
▁wireless	-12.0058
▁geolocation	-12.0058
▁stanley	-12.0058
▁rush	-12.0059
▁dinh	-12.0059
▁portable	-12.006
selected	-12.006
▁inverted	-12.006
▁korean	-12.0062
▁organs	-12.0062
nih	-12.0062
▁ignores	-12.0063
was	-12.0063
▁expresses	-12.0064
▁compiled	-12.0065
▁forums	-12.0065
lie	-12.0065
▁73	-12.0069
▁maintained	-12.007
col	-12.0072
▁explanatory	-12.0073
▁decoded	-12.0075
▁71	-12.0078
▁respond	-12.0079
▁subtitles	-12.008
▁inertial	-12.0081
-7	-12.0081
offs	-12.0082
support	-12.0084
▁2]	-12.0085
sty	-12.0085
▁rethinking	-12.0088
▁axial	-12.0088
▁syn	-12.0099
▁mono	-12.0099
star	-12.0101
▁neurips	-12.0109
open	-12.011
▁snapshot	-12.0113
▁pore	-12.0118
▁lose	-12.0121
▁accepts	-12.0121
▁wsd	-12.0129
mad	-12.0131
▁determinant	-12.0131
ang	-12.0133
▁reset	-12.0139
gin	-12.014
▁hardt	-12.0153
▁duvenaud	-12.0154
▁mcdaniel	-12.0154
▁pritzel	-12.0154
▁deblurring	-12.0154
▁surprise	-12.0154
▁zoph	-12.0154
▁plugging	-12.0154
▁opencv	-12.0157
▁duality	-12.0157
▁shortcut	-12.0157
▁nonlinearities	-12.0159
▁scored	-12.0161
▁mat	-12.0163
▁mal	-12.0163
lsa	-12.0166
usually	-12.0167
▁electric	-12.0167
▁87	-12.0169
hong	-12.0171
▁phenotypes	-12.018
▁lucas	-12.0187
▁icassp	-12.019
▁rel	-12.0197
mlr	-12.0197
▁penalize	-12.0197
▁breaking	-12.0198
▁restart	-12.0203
▁emerge	-12.0203
uck	-12.0207
mos	-12.0209
aka	-12.0214
▁ward	-12.0215
134	-12.0215
▁exemplars	-12.0218
▁fat	-12.022
900	-12.0221
▁meets	-12.0222
icip	-12.0222
▁helping	-12.0224
▁temp	-12.0224
turn	-12.0225
▁dm	-12.0227
▁mor	-12.0228
take	-12.0234
▁enc	-12.0235
▁crfs	-12.024
▁alg	-12.0246
gue	-12.0246
logical	-12.0247
▁caruana	-12.025
▁closure	-12.025
▁topologies	-12.025
▁[22]	-12.025
▁harley	-12.025
▁∃	-12.025
▁specifications	-12.025
▁superscript	-12.025
▁kr	-12.025
▁loose	-12.0252
▁unfolding	-12.0253
▁customized	-12.0253
▁noticeable	-12.0254
▁generalisation	-12.0255
▁conceptually	-12.0256
▁researches	-12.0257
▁2002	-12.026
▁devised	-12.0261
800	-12.0262
▁79	-12.0267
▁skewed	-12.0267
▁crucially	-12.0269
clock	-12.0275
controller	-12.0276
brown	-12.0276
stack	-12.0277
backward	-12.0277
92	-12.0298
oy	-12.03
▁instruments	-12.0301
big	-12.0304
▁ravi	-12.0304
▁substitution	-12.0306
▁fee	-12.0309
▁perturb	-12.031
▁str	-12.031
▁walker	-12.0312
▁pathway	-12.0313
▁alarm	-12.0313
▁sgns	-12.0314
▁meant	-12.0321
▁consuming	-12.0323
▁ibm	-12.0324
3–5	-12.0328
iros	-12.0333
55	-12.0335
▁fir	-12.0335
▁2013,	-12.0337
165	-12.0339
▁moe	-12.0341
itis	-12.0341
▁electron	-12.0341
▁holistic	-12.0345
▁jo	-12.0346
ẑ	-12.0347
▁chollet	-12.0347
▁hawkes	-12.0347
▁omniglot	-12.0347
▁schwenk	-12.0347
▁synthesizing	-12.0347
▁unpaired	-12.0347
▁auditory	-12.0347
▁lewis	-12.0347
▁navdeep	-12.0347
shafer	-12.0347
▁supposed	-12.0347
▁modularity	-12.0348
▁favorable	-12.0348
▁neuroimage	-12.0348
▁opening	-12.0349
rahman	-12.0349
▁maze	-12.035
samples	-12.035
▁lowercase	-12.0351
▁spain	-12.0351
▁mental	-12.0353
▁standards	-12.0357
ement	-12.0359
187	-12.0363
▁letting	-12.0365
250	-12.0371
mv	-12.0373
▁nan	-12.0374
()	-12.0374
▁profit	-12.0379
▁deem	-12.0379
▁degrades	-12.038
’14	-12.0389
except	-12.0391
▁resistant	-12.0392
tensor	-12.0394
▁photographs	-12.0396
▁quan	-12.0398
dqn	-12.0399
rest	-12.0401
rw	-12.0403
▁frontal	-12.0403
▁genomic	-12.0404
learned	-12.0405
▁jose	-12.0406
▁cultural	-12.0407
86,	-12.0407
spatial	-12.041
237	-12.0412
▁successor	-12.0415
▁shai	-12.0423
roi	-12.0423
ela	-12.0426
oul	-12.0427
▁0.05	-12.0435
▁tcm	-12.0435
cha	-12.044
print	-12.0441
▁clutter	-12.0442
▁dhariwal	-12.0445
▁extrapolation	-12.0445
▁jimenez	-12.0445
▁sønderby	-12.0445
▁washington	-12.0445
▁indication	-12.0445
▁everything	-12.0445
▁flipping	-12.0445
▁weaknesses	-12.0446
▁bowling	-12.0446
▁familiar	-12.0447
paper	-12.0448
▁regards	-12.0451
▁hough	-12.0452
▁suggestion	-12.0452
▁parity	-12.0456
▁1984.	-12.0457
lower	-12.0461
▁brackets	-12.0464
▁fundamentally	-12.0465
▁mag	-12.0465
▁saved	-12.0467
▁turned	-12.0469
▁ik	-12.047
268	-12.0474
▁plans	-12.0482
▁mah	-12.0484
▁4096	-12.0485
▁throughput	-12.0485
iff	-12.0485
▁sg	-12.0485
▁decides	-12.0489
▁deliver	-12.049
▁logits	-12.0493
▁stems	-12.0494
▁helped	-12.0496
▁fish	-12.0497
▁physiological	-12.0498
constant	-12.0502
suited	-12.0502
video	-12.0504
density	-12.0505
▁def	-12.0512
▁measurable	-12.0513
cad	-12.0518
▁demonstrations	-12.0519
▁stores	-12.0519
wen	-12.052
▁gt	-12.0522
wn	-12.0525
▁mfcc	-12.053
▁hsi	-12.0531
▁jing	-12.0533
zz	-12.0534
▁nal	-12.0537
▁wolf	-12.0539
▁charge	-12.0539
▁imposes	-12.054
▁gpr	-12.0541
▁adverse	-12.0541
▁mario	-12.0541
▁thickness	-12.0542
ŵ	-12.0544
▁exploding	-12.0544
▁fidjeland	-12.0544
▁jaakkola	-12.0544
▁neurocomputing	-12.0544
▁tassa	-12.0544
▁zhifeng	-12.0544
▁holger	-12.0544
▁(1997)	-12.0544
▁electricity	-12.0544
reading	-12.0545
▁losing	-12.0545
1.1	-12.0545
▁escape	-12.0548
2009	-12.0548
▁jon	-12.0549
▁uniqueness	-12.0551
▁trackers	-12.0554
▁claimed	-12.0557
(1)	-12.0563
▁tts	-12.0573
▁depthwise	-12.0573
▁ui	-12.0576
respectively	-12.0577
159	-12.0578
force	-12.0578
any	-12.058
nen	-12.0582
▁(2006)	-12.0583
▁lateral	-12.0583
▁relaxations	-12.0585
8–3	-12.0589
▁overlaps	-12.0589
erman	-12.0591
rid	-12.0594
31,	-12.0596
admits	-12.0597
▁ring	-12.0603
ben	-12.0607
▁360	-12.0608
itt	-12.0609
▁maml	-12.0609
system	-12.061
▁2010,	-12.0612
▁françois	-12.0613
pur	-12.0616
72	-12.0616
ξ	-12.0619
48,	-12.062
▁realizations	-12.0621
▁91	-12.0626
▁89	-12.0629
▁yee	-12.0631
▁manipulate	-12.0632
▁prepare	-12.0632
▁constituents	-12.0632
computed	-12.0632
▁interpolate	-12.0633
iel	-12.0641
▁ultimate	-12.0641
▁influential	-12.0644
▁prevalence	-12.0644
▁deepmind	-12.0644
lobato	-12.0644
▁celeba	-12.0644
▁patent	-12.0645
▁targeting	-12.0645
▁sand	-12.0646
▁rib	-12.0648
▁tighter	-12.0648
▁attained	-12.0649
▁severely	-12.065
▁fastest	-12.0651
ground	-12.0651
▁groundtruth	-12.0651
55,	-12.0654
▁restricting	-12.0655
▁interpolated	-12.0656
rey	-12.0658
ips	-12.0665
▁berkeley	-12.0667
▁donald	-12.0667
▁synapses	-12.0668
▁mad	-12.0668
▁sm	-12.067
▁torch	-12.0674
▁gaining	-12.0676
▁slam	-12.0678
mil	-12.0679
▁chunks	-12.0679
▁avoided	-12.068
eva	-12.0686
52,	-12.0688
115	-12.0695
represented	-12.0696
weights	-12.07
▁fractional	-12.07
▁inaccurate	-12.0702
-2016	-12.0702
dong	-12.0703
▁sander	-12.0703
▁plate	-12.0704
▁adult	-12.0704
▁copula	-12.0705
▁distorted	-12.0706
hn	-12.0706
raw	-12.0707
prior	-12.071
▁generalizations	-12.0712
▁grants	-12.0715
▁cited	-12.0719
▁3.3.	-12.0721
phone	-12.0722
isbi	-12.0725
ser	-12.0727
din	-12.0728
▁corners	-12.0728
▁delays	-12.0729
▁steady	-12.0729
ratio	-12.073
▁bags	-12.0733
(2)	-12.0733
exponential	-12.0736
.3.	-12.0736
complexity	-12.0736
recurrent	-12.0737
binary	-12.0737
▁monotonicity	-12.0738
:1611.0	-12.0741
78,	-12.0741
▁131	-12.0742
emo	-12.0742
47,	-12.0743
2007	-12.0745
▁motifs	-12.0745
▁shakir	-12.0745
▁amenable	-12.0745
▁anthology	-12.0745
▁xgboost	-12.0745
▁essence	-12.0745
▁remarkably	-12.0745
▁preferable	-12.0746
▁(%)	-12.0746
reduced	-12.0747
179	-12.0749
▁cma	-12.0749
5,000	-12.075
▁interacts	-12.0752
transfer	-12.0753
▁crossover	-12.0753
date	-12.0757
bon	-12.076
▁separability	-12.0761
▁1985.	-12.0762
59,	-12.077
▁fgsm	-12.0773
▁ár	-12.0774
▁2.6	-12.0776
▁headlines	-12.0778
▁mol	-12.0784
▁albeit	-12.0784
▁⌋	-12.0784
85,	-12.0788
file	-12.0789
nr	-12.079
dh	-12.079
32,	-12.0791
▁guy	-12.0794
elbo	-12.0798
3–6	-12.0804
▁eflect	-12.0806
ock	-12.0807
▁transaction	-12.0808
▁handles	-12.0808
▁pang	-12.0809
▁diet	-12.0811
sed	-12.0821
▁800	-12.0828
▁wherein	-12.0835
▁yue	-12.0835
▁ec	-12.0838
▁gra	-12.084
▁nam	-12.0845
▁ffxed	-12.0847
▁adagrad	-12.0847
▁simulating	-12.0847
▁unimodal	-12.0847
▁dierent	-12.0848
52–	-12.0848
▁hinder	-12.0849
shape	-12.0851
▁chunking	-12.0851
▁bra	-12.0851
▁kon	-12.0853
analysis	-12.0854
correct	-12.0856
▁tracing	-12.0856
house	-12.0857
▁projective	-12.0858
▁attentions	-12.0862
war	-12.0863
▁40%	-12.0866
▁2.2.1	-12.0867
220	-12.0868
dir	-12.0869
▁differing	-12.0869
▁cad	-12.0869
▁chromosomes	-12.0869
62,	-12.087
unk	-12.0871
▁)))	-12.0871
admm	-12.0872
structure	-12.0872
▁141	-12.0874
cw	-12.0875
▁tissues	-12.0875
▁transcripts	-12.0876
ened	-12.0881
30,	-12.0882
▁matters	-12.0883
fixed	-12.0885
(6	-12.0887
▁transpose	-12.0889
▁edits	-12.0889
▁joan	-12.0897
1:	-12.0897
41,	-12.0898
lrp	-12.0902
(3	-12.0907
▁obstacle	-12.091
dam	-12.0912
35	-12.0917
▁appl	-12.0917
▁toeplitz	-12.0918
▁robustly	-12.0922
▁rc	-12.0922
▁posed	-12.0932
▁mpc	-12.0932
relation	-12.0934
37,	-12.0935
▁desire	-12.0938
ami	-12.0939
▁actors	-12.0939
▁collision	-12.0941
▁pv	-12.0941
▁125	-12.0943
▁clever	-12.0944
vp	-12.0945
▁(‘	-12.0947
▁arch	-12.0949
▁rubin	-12.095
▁pedregosa	-12.095
▁schiele	-12.095
▁vaswani	-12.095
▁wainwright	-12.095
▁yosinski	-12.095
▁pedro	-12.095
▁therapy	-12.095
▁wallach	-12.095
▁nando	-12.095
▁reproduction	-12.095
▁speciffcally	-12.0951
▁erez	-12.0951
ooft	-12.0951
▁alongside	-12.0954
▁rejected	-12.0954
boost	-12.0955
▁parallelization	-12.0956
113	-12.0957
▁evenly	-12.0958
~9	-12.0959
rb	-12.096
▁mastering	-12.0961
root	-12.0966
▁paid	-12.0966
gf	-12.0974
houth	-12.0975
▁looked	-12.0979
▁repetitions	-12.0983
hao	-12.0985
div	-12.0985
▁converts	-12.0987
▁lib	-12.0987
▁metal	-12.0988
3–7	-12.0988
▁lectures	-12.0989
sent	-12.0989
▁expansions	-12.099
▁ff	-12.0994
(2),	-12.1
▁markets	-12.1001
roll	-12.1007
▁978	-12.1009
sha	-12.1011
▁deeply	-12.1012
▁lowe	-12.1013
▁accelerator	-12.1014
▁classiffer	-12.1014
ale	-12.1015
element	-12.1017
▁strip	-12.1017
▁sol	-12.1021
▁therein	-12.1023
oi	-12.1025
:140	-12.1031
▁ger	-12.1032
‘	-12.1032
▁sumit	-12.1036
▁practices	-12.1039
cai	-12.1043
▁disaster	-12.1045
▁kang	-12.1045
▁carin	-12.1046
▁automate	-12.1047
▁josh	-12.1049
84	-12.1051
õ	-12.1054
▁dollár	-12.1054
▁irreducible	-12.1054
▁miguel	-12.1054
▁provable	-12.1054
▁reproducibility	-12.1054
▁reproducible	-12.1054
▁talwar	-12.1054
▁clune	-12.1055
▁money	-12.1055
▁colleagues	-12.1056
▁blending	-12.1057
▁listening	-12.1058
▁colorization	-12.106
▁86	-12.106
▁arranged	-12.1061
▁lattices	-12.1064
▁degraded	-12.1065
44,	-12.1065
▁neuronal	-12.107
▁quaternion	-12.107
▁factored	-12.107
lier	-12.1074
▁12-	-12.1074
jp	-12.1076
▁extractors	-12.1078
▁69	-12.1081
gps	-12.1081
▁130	-12.1081
cco	-12.1083
▁psf	-12.1084
107	-12.1087
continuous	-12.1087
sys	-12.1087
▁ju	-12.1091
asymptotic	-12.1092
bic	-12.1095
▁warped	-12.1097
:1707.0	-12.1102
▁gam	-12.1103
bow	-12.1103
▁forecasts	-12.1107
▁kong	-12.1108
▁correcting	-12.112
+1	-12.1122
286	-12.1123
▁debate	-12.1123
▁tai	-12.1125
approximate	-12.1126
▁1,000	-12.1128
char	-12.1135
▁finance	-12.1135
▁mistake	-12.114
rim	-12.1146
has	-12.1146
▁faced	-12.1146
▁pedestrians	-12.1147
variate	-12.1148
208	-12.1154
▁circumvent	-12.1155
▁2014)	-12.1157
▁fortunately	-12.1159
▁penalizing	-12.1159
▁vishwanathan	-12.1159
▁vladimir	-12.1159
▁eugene	-12.1159
▁tedious	-12.1159
▁yoav	-12.116
▁blstm	-12.116
▁prize	-12.116
▁ramanan	-12.1161
▁formalization	-12.1161
▁intrinsically	-12.1161
▁hansen	-12.1162
ote	-12.1163
fnn	-12.1165
172	-12.1165
▁stopwords	-12.1168
114	-12.117
▁phones	-12.1171
▁fulfill	-12.1171
tier	-12.1173
▁ham	-12.1174
▁cuda	-12.1175
mail	-12.1178
▁distinguished	-12.1179
ibility	-12.118
▁seeking	-12.1181
-2018	-12.1184
▁proteins	-12.1185
▁deeplab	-12.1187
▁4.0	-12.1191
▁conservative	-12.1192
45,	-12.1197
distributed	-12.1197
▁homogeneity	-12.12
inc	-12.1209
mini	-12.1209
▁18:	-12.1212
springer	-12.1215
global	-12.1215
26,	-12.1217
▁exceed	-12.1218
218	-12.1221
rai	-12.1222
▁sublinear	-12.1223
▁tackled	-12.1223
▁vad	-12.1224
▁moved	-12.1225
correlation	-12.1231
9(2):	-12.1232
elman	-12.1233
stor	-12.1234
▁pixelcnn	-12.1236
jia	-12.124
▁perceptrons	-12.1241
129	-12.1243
▁possess	-12.1243
▁andrei	-12.1243
ective	-12.1244
▁106	-12.1246
▁stress	-12.1248
▁yong	-12.1251
180	-12.1252
52	-12.1252
▁concurrent	-12.1263
▁(8)	-12.1265
▁apr	-12.1265
▁eliminating	-12.1266
▁kilian	-12.1266
▁philosophy	-12.1266
▁repetitive	-12.1266
▁yuille	-12.1266
▁kendall	-12.1266
▁szlam	-12.1266
▁unexpected	-12.1266
▁birth	-12.1266
▁injection	-12.1266
▁citro	-12.1268
▁andrej	-12.1269
bc	-12.1269
rep	-12.1269
▁discarding	-12.1273
▁downsampled	-12.1273
▁labor	-12.1273
▁mood	-12.1277
▁tac	-12.1281
140	-12.1281
▁uai	-12.1284
▁establishing	-12.1285
▁demanding	-12.1286
vis	-12.1287
23	-12.1289
game	-12.1289
▁organizations	-12.129
▁sont	-12.1291
convnet	-12.1292
▁raises	-12.1294
zan	-12.1297
▁obstacles	-12.1307
hash	-12.1308
▁sixth	-12.1311
▁gec	-12.1314
157	-12.1317
▁failures	-12.1317
▁crossing	-12.1322
▁bnn	-12.1322
249	-12.1325
branch	-12.133
▁6.1	-12.1331
▁exponent	-12.1332
▁phantom	-12.1333
reduce	-12.1333
▁barrier	-12.1333
▁treats	-12.1334
57,	-12.1334
▁zhen	-12.1335
device	-12.1337
speed	-12.1339
category	-12.1339
▁drl	-12.135
▁attract	-12.1352
▁sharpness	-12.1359
natural	-12.1362
hen	-12.1369
hin	-12.1369
▁fmri	-12.1371
ø	-12.1373
▁acquiring	-12.1373
▁kudlur	-12.1373
▁inferior	-12.1373
▁deciding	-12.1373
▁shamir	-12.1374
▁expressiveness	-12.1375
▁classroom	-12.1377
iteration	-12.1381
▁propositional	-12.1384
▁participated	-12.1385
ique	-12.1386
▁odd	-12.1387
rating	-12.1387
▁wayne	-12.1387
5-	-12.1389
04,	-12.139
▁12(	-12.1392
▁emoticons	-12.1393
ending	-12.1394
▁bro	-12.1404
▁holding	-12.1407
▁genuine	-12.1407
2–4	-12.1409
istic	-12.141
288	-12.1413
▁neighborhoods	-12.1414
110	-12.1414
▁lau	-12.1415
kb	-12.1422
▁2278–2324,	-12.1424
pix	-12.1424
▁nli	-12.1434
ury	-12.1434
either	-12.1439
3–8	-12.1443
51,	-12.1447
99,	-12.145
rna	-12.1451
▁xia	-12.1451
▁spie	-12.1452
aj	-12.1459
▁nlg	-12.1461
tk	-12.1461
▁evan	-12.1465
▁night	-12.147
lemma	-12.147
▁believed	-12.1472
▁experienced	-12.1473
enko	-12.1474
oe	-12.1477
lis	-12.1477
ati	-12.148
▁advent	-12.148
▁blunsom	-12.1482
▁erroneous	-12.1482
▁kinematic	-12.1482
▁nowozin	-12.1482
biggest	-12.1482
▁secret	-12.1482
▁saenko	-12.1482
▁hadsell	-12.1482
▁orthogonality	-12.1485
▁cur	-12.1485
▁viewpoints	-12.1487
px	-12.1488
▁bibliography	-12.1489
▁freeman	-12.1489
1024	-12.1491
77	-12.1491
▁usability	-12.1492
▁remained	-12.1498
▁roots	-12.1498
▁balls	-12.15
▁marketing	-12.15
▁zen	-12.1501
▁140	-12.1503
ée	-12.1503
▁maxim	-12.1503
án	-12.1503
▁¬	-12.1506
▁blonde	-12.1508
▁physically	-12.1508
sk	-12.151
▁decaying	-12.151
lim	-12.1511
▁jr	-12.1512
get	-12.1512
▁nr	-12.1515
▁rosen	-12.1515
▁genetics	-12.1518
scan	-12.1524
▁initiative	-12.1525
rel	-12.1527
185	-12.1527
meta	-12.1528
277	-12.1533
full	-12.1534
▁certainly	-12.1535
▁plda	-12.1535
195	-12.1535
tat	-12.1535
serve	-12.1541
eri	-12.1542
▁covariances	-12.1544
lef	-12.1548
ding	-12.1549
acc	-12.155
25,	-12.1551
▁modifier	-12.1552
▁nat	-12.1555
136	-12.1556
lad	-12.1557
cos	-12.1558
▁demands	-12.156
257	-12.1561
▁flight	-12.1564
pairs	-12.1566
▁reg	-12.1566
▁anomalous	-12.1567
4(3):	-12.1572
▁participate	-12.158
▁devise	-12.158
canbe	-12.1581
gar	-12.1582
rot	-12.1583
▁nyström	-12.1584
▁darpa	-12.1584
▁honey	-12.1589
nb	-12.159
joint	-12.159
:1312.6114	-12.1592
▁henderson	-12.1592
▁manzagol	-12.1592
▁incorporation	-12.1592
▁bethge	-12.1592
▁cartoon	-12.1592
▁stemming	-12.1592
▁graham	-12.1592
signal	-12.1593
▁sarsa	-12.1593
▁blum	-12.1593
bayes	-12.1595
▁everyday	-12.1596
anda	-12.1597
spite	-12.1598
unsupervised	-12.1598
▁talking	-12.16
▁mon	-12.1603
▁deb	-12.1607
oh	-12.1609
▁predictable	-12.161
▁cui	-12.1611
66,	-12.1614
moto	-12.1614
▁continued	-12.1625
▁seizure	-12.1628
▁opens	-12.1628
▁rooms	-12.1629
▁paintings	-12.163
▁^	-12.163
auto	-12.1638
98,	-12.164
▁1080	-12.1648
gn	-12.1649
▁pointing	-12.165
01,	-12.1651
▁bow	-12.1651
▁stops	-12.1655
akis	-12.1655
365	-12.1657
▁1500	-12.1661
▁proportions	-12.1662
▁superposition	-12.1663
verb	-12.1669
▁hits	-12.1673
▁garcia	-12.1678
knn	-12.1679
▁init	-12.168
jen	-12.1681
nan	-12.1683
ici	-12.1685
mid	-12.1687
yuan	-12.1691
▁perceive	-12.1691
▁expose	-12.1692
59–	-12.1695
▁worlds	-12.1697
▁104	-12.1698
▁att	-12.1699
they	-12.1703
▁gatys	-12.1703
▁idiom	-12.1703
opoulos	-12.1703
▁9(8):1735–1780,	-12.1703
▁accumulation	-12.1703
▁carcinoma	-12.1703
▁elsevier	-12.1703
▁littman	-12.1703
▁mccallum	-12.1703
▁sequencing	-12.1703
▁sherjil	-12.1703
▁varoquaux	-12.1703
▁jakob	-12.1703
▁enormous	-12.1703
▁sifre	-12.1703
▁analogies	-12.1703
▁admissible	-12.1704
▁euler	-12.1704
▁mannor	-12.1704
=0	-12.1705
▁unmixing	-12.1705
▁mouth	-12.1706
uda	-12.1706
▁unweighted	-12.1707
▁gd	-12.1708
▁aligns	-12.1708
tas	-12.1708
126	-12.1708
▁multispectral	-12.1709
▁gathering	-12.1709
▁16.	-12.1709
▁modulation	-12.1712
▁shuffle	-12.1713
centered	-12.1715
annotator	-12.1715
schmidt	-12.1715
▁roberts	-12.1716
distortion	-12.1717
generator	-12.1718
energy	-12.1718
simple	-12.1719
regularization	-12.1719
estimation	-12.1719
171	-12.172
methodological	-12.1722
▁compromise	-12.1722
quant	-12.1728
▁registered	-12.1732
▁sham	-12.1732
173	-12.1736
47	-12.1745
kawa	-12.1745
▁wins	-12.1753
▁11,	-12.1754
▁spoofing	-12.1755
iu	-12.1756
rss	-12.1756
▁info	-12.1756
▁catch	-12.1757
lop	-12.1758
plot	-12.1759
146	-12.1761
▁nk	-12.1761
tasks	-12.1765
ient	-12.1765
82,	-12.1767
ates	-12.1768
▁answered	-12.1769
▁innovations	-12.177
priori	-12.177
lot	-12.1771
7–8	-12.1775
3–12	-12.1777
▁concluded	-12.1778
(0	-12.1779
▁electronics	-12.1779
▁cmu	-12.1779
▁spikes	-12.178
54,	-12.178
thought	-12.1784
td	-12.1784
bag	-12.1789
105	-12.1789
▁planet	-12.179
umb	-12.1792
fly	-12.1793
▁spine	-12.1793
120	-12.1794
164	-12.1795
classes	-12.1797
▁cap	-12.1797
▁byzantine	-12.1798
vy	-12.18
▁tp	-12.1801
▁deffne	-12.1803
▁bpp	-12.1805
arg	-12.1806
2008	-12.181
gle	-12.1812
sw	-12.1813
▁impulse	-12.1815
▁colonoscope	-12.1815
▁disentangling	-12.1815
▁ministry	-12.1815
▁portuguese	-12.1815
▁quantified	-12.1815
▁richtárik	-12.1815
▁uszkoreit	-12.1815
▁rotating	-12.1815
▁loudness	-12.1815
▁minimise	-12.1815
▁stopped	-12.1816
▁backprop	-12.1816
cy	-12.1817
263	-12.1819
▁envelope	-12.1822
▁saturation	-12.1824
▁grasping	-12.1825
203	-12.1827
▁joachims	-12.1829
ridge	-12.1835
▁inappropriate	-12.1837
vl	-12.1839
6)	-12.184
compute	-12.1843
taylor	-12.1847
camera	-12.1848
-2014	-12.1849
prediction	-12.185
▁indirectly	-12.1853
49–	-12.1856
▁investigations	-12.1857
68,	-12.1858
▁massachusetts	-12.1859
▁bucket	-12.1861
▁aggregates	-12.1861
174	-12.1861
chair	-12.1861
▁cdf	-12.1864
▁hui	-12.1865
▁crp	-12.1865
▁czech	-12.1866
▁imp	-12.1866
▁delving	-12.1868
▁sep	-12.1868
▁edited	-12.1874
hlt	-12.1876
▁pol	-12.1876
▁discriminating	-12.1877
▁excitation	-12.1877
▁transformers	-12.1879
▁92	-12.1879
▁succeed	-12.1881
ette	-12.1887
▁rumour	-12.1889
▁abbreviation	-12.1889
▁trigram	-12.1891
lit	-12.1891
ria	-12.1891
▁compounds	-12.1891
▁supplie	-12.1892
▁2009,	-12.1892
feld	-12.1896
▁negatively	-12.1898
▁hands	-12.1904
▁sad	-12.1907
▁avg	-12.1912
zer	-12.1916
▁inject	-12.192
aria	-12.192
▁geographic	-12.1927
▁wan	-12.1928
▁jaderberg	-12.1929
▁kidney	-12.1929
▁levenberg	-12.1929
▁wattenberg	-12.1929
▁kolmogorov	-12.1929
▁ffgure	-12.1929
▁pertain	-12.1929
▁ranganath	-12.1929
▁wearable	-12.1929
▁collins	-12.1929
▁hsieh	-12.1929
▁pineau	-12.1929
▁abdel	-12.1929
▁isolation	-12.1929
▁silhouette	-12.1929
▁uncorrelated	-12.1929
▁cooperation	-12.193
1(4):	-12.193
▁alexey	-12.193
▁jonas	-12.1931
▁typing	-12.1933
▁unitary	-12.1934
▁stuck	-12.1934
▁parties	-12.1936
▁inserting	-12.1937
there	-12.1937
▁contest	-12.1937
▁trivially	-12.1938
▁saul	-12.1938
▁kappa	-12.1938
▁ut	-12.1939
▁retained	-12.1939
ehr	-12.194
▁shuffled	-12.1942
▁attended	-12.1942
▁unk	-12.1947
▁mae	-12.1951
▁noam	-12.1952
tur	-12.1958
▁verbal	-12.1959
▁harm	-12.1962
267	-12.1962
61,	-12.1963
ture	-12.1966
▁obs	-12.1967
▁coling	-12.1968
▁saw	-12.1974
semi	-12.1976
0.95	-12.1976
intensive	-12.1977
▁phil	-12.1977
white	-12.1978
ijcai	-12.1979
▁mobilenet	-12.1979
window	-12.198
▁gro	-12.198
▁bill	-12.198
▁guada	-12.1981
▁neighbour	-12.1982
▁characterizes	-12.1983
▁infinitely	-12.199
smt	-12.1991
00,	-12.1991
▁posteriori	-12.1991
▁chunk	-12.1994
tw	-12.1996
bir	-12.1997
▁yolo	-12.2002
▁south	-12.2004
3:	-12.2009
▁seeing	-12.2009
▁twofold	-12.2019
▁cancel	-12.202
nic	-12.2023
▁ego	-12.2025
ural	-12.2027
efficiency	-12.2034
maker	-12.2036
ranked	-12.2039
▁sen	-12.204
▁breaks	-12.2041
▁mb	-12.2042
0–5	-12.2043
▁congress	-12.2044
:1804.0	-12.2044
▁cityscapes	-12.2044
▁diabetes	-12.2044
▁kurakin	-12.2044
▁retrieving	-12.2044
▁closing	-12.2044
▁isomorphism	-12.2044
▁happy	-12.2044
▁sontag	-12.2044
▁crowdsourced	-12.2044
9(3):	-12.2045
hw	-12.2046
▁deffned	-12.2049
."	-12.205
▁minibatches	-12.205
▁02	-12.2051
▁optimised	-12.2052
▁rong	-12.2053
▁raised	-12.2054
ado	-12.2054
▁cutoff	-12.2057
▁join	-12.2058
▁pla	-12.2059
▁schu	-12.206
ante	-12.206
264	-12.2062
▁goodness	-12.2062
ffi	-12.2068
▁binding	-12.2073
▁seller	-12.2077
▁resultant	-12.2078
0(3):	-12.2079
▁portfolio	-12.208
▁leon	-12.2083
448	-12.2083
▁turning	-12.2084
cgan	-12.2085
ison	-12.209
▁2048	-12.2091
▁grand	-12.2092
lat	-12.2099
cheng	-12.21
▁lifting	-12.2101
▁leader	-12.2102
shannon	-12.2105
▁shapley	-12.2107
▁parsed	-12.2108
ecker	-12.2108
modality	-12.2111
ual	-12.2111
▁appearances	-12.2112
κ	-12.2113
choice	-12.2113
▁pin	-12.2113
covariance	-12.2113
⟩	-12.2114
rev	-12.2115
▁court	-12.2116
▁mlps	-12.2116
29–	-12.2116
▁routine	-12.2117
▁threat	-12.212
vaes	-12.2124
rae	-12.2131
167	-12.2132
▁tm	-12.2133
parent	-12.2135
oda	-12.2137
spec	-12.2139
aut	-12.2142
▁checks	-12.2146
posterior	-12.215
▁geographical	-12.2159
▁bastien	-12.216
▁college	-12.216
▁converging	-12.216
▁courbariaux	-12.216
▁dendrogram	-12.216
▁hindsight	-12.216
▁mcallester	-12.216
▁susceptible	-12.216
▁vulnerability	-12.216
▁ganguli	-12.216
▁blurring	-12.216
▁polish	-12.216
▁disentanglement	-12.216
▁insightful	-12.2161
▁cellular	-12.2161
5(3):	-12.2162
▁pathological	-12.2162
may	-12.2162
rag	-12.2163
▁capitalized	-12.2166
thor	-12.2166
▁(2002)	-12.2166
▁transferability	-12.2168
▁luong	-12.2169
▁17:	-12.217
▁4.1.	-12.2171
▁older	-12.2171
▁violated	-12.2172
work	-12.2175
169	-12.2175
▁frey	-12.2176
43,	-12.2177
07.	-12.2179
▁purchase	-12.2179
▁maximise	-12.218
▁smoothly	-12.2187
▁attempting	-12.2193
▁clinically	-12.2197
▁voltage	-12.2197
ech	-12.2201
▁ldm	-12.2204
▁num	-12.2204
▁usenix	-12.2206
dic	-12.2209
▁restarts	-12.2209
106	-12.2215
▁admit	-12.2216
sep	-12.2221
166	-12.2223
▁enclose	-12.2225
minus	-12.2227
▁impacts	-12.2229
radi	-12.2237
▁approximator	-12.2238
▁subscript	-12.2238
▁biometric	-12.2238
▁markovian	-12.2239
▁dae	-12.2243
confidence	-12.2248
optimization	-12.2248
liang	-12.225
▁ve	-12.2252
occur	-12.2254
sur	-12.2255
▁mapf	-12.2256
▁,..,	-12.2259
▁broadcast	-12.2259
▁analog	-12.2262
▁jobs	-12.2262
aug	-12.2266
enberg	-12.2266
”),	-12.2268
site	-12.227
~}	-12.2273
60,	-12.2273
rav	-12.2273
▁foot	-12.2274
effective	-12.2275
▁kra	-12.2276
:1602.0	-12.2278
▁botvinick	-12.2278
▁dhillon	-12.2278
▁undesirable	-12.2278
▁differentiating	-12.2278
▁muller	-12.2278
▁spotting	-12.2278
hastings	-12.2278
▁chih	-12.2279
▁radiographs	-12.2279
▁thrun	-12.2279
▁selectivity	-12.2279
▁void	-12.2279
▁loan	-12.228
▁classication	-12.228
▁lessons	-12.2281
▁thoroughly	-12.2282
▁tone	-12.2282
▁shaded	-12.2282
▁altered	-12.2283
▁steiner	-12.2283
▁nov	-12.2284
259	-12.2284
hc	-12.2284
▁nonsmooth	-12.2291
▁biologically	-12.2292
▁magnitudes	-12.2293
ship	-12.2296
yang	-12.2298
▁clicks	-12.2299
agg	-12.23
▁bal	-12.23
▁eficient	-12.2303
▁affecting	-12.2307
▁struggle	-12.2308
▁hashtag	-12.2313
▁asian	-12.2316
▁reversed	-12.2316
299	-12.2321
vol	-12.2323
▁(2009).	-12.2324
entity	-12.2327
▁multilabel	-12.2328
fusion	-12.2333
walk	-12.2333
▁correlates	-12.2338
▁behaves	-12.2338
often	-12.2339
▁decomposable	-12.2342
▁awareness	-12.2343
▁degrade	-12.2346
2.5	-12.2346
▁parametrization	-12.2347
nm	-12.2348
▁accounting	-12.2348
▁excluding	-12.2352
102	-12.2352
▁medication	-12.2356
▁radiomic	-12.2357
189	-12.2359
sion	-12.2359
qui	-12.236
▁crops	-12.2361
▁loops	-12.2361
fin	-12.2361
bst	-12.2363
130	-12.2363
373	-12.2367
raman	-12.237
hod	-12.2375
176	-12.2376
empty	-12.2377
▁compilation	-12.2379
▁mountain	-12.2379
201	-12.2381
▁observes	-12.2381
ple	-12.2382
▁jul	-12.2382
evaluation	-12.2385
dom	-12.2387
242	-12.2387
hai	-12.2387
automated	-12.2387
▁decomposes	-12.2389
▁door	-12.2391
▁pioneer	-12.2397
▁achievable	-12.2397
▁bougares	-12.2397
▁companion	-12.2397
▁continuation	-12.2397
▁dasgupta	-12.2397
▁fawzi	-12.2397
▁pragmatic	-12.2397
▁neuroimaging	-12.2397
▁stratified	-12.2397
▁staging	-12.2397
▁gigaword	-12.2397
▁phillip	-12.2397
:1806.0	-12.2397
▁isabelle	-12.2397
pour	-12.2399
▁sanjay	-12.2399
▁subtracting	-12.2399
▁tony	-12.24
7–6	-12.2403
due	-12.2404
▁viable	-12.2405
298	-12.2405
▁dump	-12.2407
▁jorge	-12.2408
39,	-12.241
author	-12.241
▁entails	-12.2413
▁poverty	-12.2416
131	-12.2416
▁ptb	-12.2416
linearities	-12.2417
▁hmc	-12.2418
▁warden	-12.2419
close	-12.242
▁ros	-12.242
▁conducting	-12.2426
▁sweep	-12.2427
▁reddit	-12.2427
▁subproblems	-12.2428
illa	-12.2433
reward	-12.2434
ium	-12.2437
▁ranker	-12.2438
7–11	-12.244
pq	-12.2442
▁arrow	-12.2445
▁coral	-12.2445
▁propagated	-12.2448
assi	-12.2449
▁ties	-12.245
lies	-12.2455
ett	-12.2456
▁mbn	-12.2458
occurrences	-12.2458
▁iis	-12.2461
1–13	-12.2465
290	-12.2465
▁attachment	-12.2466
deterministic	-12.247
▁election	-12.2477
▁sheng	-12.2477
▁readmission	-12.2477
▁regressors	-12.2478
▁hernández	-12.248
▁readings	-12.2483
▁qiang	-12.2487
(3),	-12.2493
53,	-12.2493
▁classifications	-12.2498
edit	-12.2501
ford	-12.2502
▁stacks	-12.2502
▁categorize	-12.2505
▁revisit	-12.251
▁justify	-12.2514
▁schl	-12.2514
▁famous	-12.2515
▁signiffcant	-12.2515
▁86(11):	-12.2517
▁[23]	-12.2517
▁bertsekas	-12.2517
▁contemporary	-12.2517
▁rafal	-12.2517
▁sainath	-12.2517
▁transparency	-12.2517
▁yoram	-12.2517
▁adobe	-12.2517
▁compelling	-12.2517
▁agencies	-12.2517
▁guiding	-12.2518
▁dream	-12.2518
▁0.0001	-12.2518
▁fftness	-12.2518
scipy	-12.252
wood	-12.2522
tailed	-12.2522
▁crawled	-12.2522
▁narayanan	-12.2523
regret	-12.2524
ulo	-12.2525
price	-12.2525
▁60%	-12.2527
▁emails	-12.2527
▁nir	-12.2528
▁painting	-12.2528
▁anisotropic	-12.253
▁(7)	-12.2532
▁hart	-12.2534
▁watch	-12.2534
▁tile	-12.2535
49,	-12.2536
critical	-12.2538
▁traits	-12.2543
▁browser	-12.2544
cop	-12.2547
hg	-12.2556
mtl	-12.2558
▁mail	-12.256
kit	-12.256
▁ki	-12.2561
rick	-12.2561
▁implied	-12.2563
bourg	-12.2564
bauer	-12.2566
▁synthesizer	-12.2568
mask	-12.2569
▁encouraged	-12.2569
ika	-12.2573
▁shannon	-12.2576
bank	-12.2583
375	-12.2585
▁diagnose	-12.2587
etic	-12.2593
▁fflter	-12.2595
thus	-12.2597
▁advertisement	-12.2599
▁)+	-12.2599
▁fixation	-12.2601
▁lap	-12.2603
▁weber	-12.2606
jet	-12.261
4–5	-12.2617
vm	-12.2622
▁lc	-12.2623
you	-12.2624
▁christoph	-12.2624
▁albert	-12.2625
lem	-12.2629
▁interpreter	-12.263
rial	-12.2631
ged	-12.2631
bal	-12.2632
▁ladder	-12.2637
▁caglar	-12.2639
▁cascading	-12.2639
▁offspring	-12.2639
▁participating	-12.2639
▁rohrbach	-12.2639
▁strategic	-12.2639
▁stylistic	-12.2639
▁unreliable	-12.2639
▁arora	-12.2639
▁interpolating	-12.2639
▁sergio	-12.2639
▁shaping	-12.264
▁assistance	-12.264
▁unavailable	-12.264
▁brownian	-12.264
▁badia	-12.2641
▁accumulate	-12.2642
▁centrality	-12.2642
iffed	-12.2643
▁reply	-12.2645
dsc	-12.2646
▁depths	-12.2646
▁analogously	-12.2647
640	-12.2647
▁1.4	-12.2649
▁surely	-12.265
threshold	-12.2654
▁highlighting	-12.2658
concave	-12.2659
▁copying	-12.2661
▁dwork	-12.2662
▁risks	-12.2662
ular	-12.2665
mh	-12.2667
▁(2004)	-12.2671
▁mentioning	-12.2671
353	-12.2671
pal	-12.2672
▁whereby	-12.2674
▁erik	-12.2676
▁bus	-12.2679
▁mf	-12.2682
▁mas	-12.2684
bio	-12.2685
▁127	-12.2685
245	-12.2687
ils	-12.2692
fix	-12.2693
276	-12.2693
340	-12.2695
eff	-12.2697
▁hierarchically	-12.2705
▁⌊	-12.2706
▁hans	-12.2708
▁reflections	-12.2709
optim	-12.271
dag	-12.2711
arra	-12.272
▁spot	-12.2721
▁hdr	-12.2723
▁0.25	-12.2727
▁headline	-12.2728
22.	-12.2729
ying	-12.2735
izer	-12.2736
és	-12.2737
mass	-12.2738
-10,	-12.2743
tti	-12.2755
▁ffne	-12.2756
made	-12.2758
▁controllers	-12.2758
:1706.0	-12.2759
)-(	-12.276
▁spring	-12.2762
▁hamilton	-12.2762
▁ã	-12.2763
⋃	-12.2763
▁ambiguities	-12.2763
▁contributing	-12.2763
▁exogenous	-12.2763
▁homography	-12.2763
▁termination	-12.2763
▁honglak	-12.2763
▁aircraft	-12.2763
▁walter	-12.2763
▁delineation	-12.2763
ye	-12.2763
▁readability	-12.2764
▁fb	-12.2766
▁contextualized	-12.2766
▁wsi	-12.2766
▁abuse	-12.2768
89,	-12.2768
▁sharma	-12.2771
▁driess	-12.2771
▁register	-12.2772
▁pubmed	-12.2773
uai	-12.2775
▁lossy	-12.2777
bomb	-12.2778
wal	-12.2781
▁falling	-12.2781
▁thinking	-12.2784
▁judgements	-12.2786
▁courses	-12.2786
dpp	-12.2787
▁asks	-12.2787
rod	-12.2789
▁institutions	-12.2792
▁luc	-12.2795
engineered	-12.2796
▁19:	-12.2799
▁snippets	-12.2801
▁(2007)	-12.2801
▁eliminated	-12.2802
ologist	-12.2803
307	-12.2811
▁discussing	-12.2819
hill	-12.282
speciffc	-12.2822
12.	-12.2826
▁rui	-12.2831
34,	-12.2832
elu	-12.2835
▁kun	-12.2835
described	-12.2836
▁touch	-12.2838
prop	-12.2839
▁bm	-12.2839
▁judge	-12.284
concat	-12.2841
room	-12.2841
▁counterexample	-12.2848
▁sean	-12.285
▁associative	-12.285
▁newman	-12.285
▁speeding	-12.2853
5%	-12.2856
bul	-12.2856
▁ré	-12.2861
▁sel	-12.2864
▁tens	-12.2865
▁khan	-12.2875
▁synset	-12.2876
craft	-12.2879
▁dt	-12.2879
▁violate	-12.2883
▁lane	-12.2884
▁comprise	-12.2884
▁kn	-12.2885
6(3):	-12.2885
goal	-12.2887
▁afford	-12.2887
conscious	-12.2888
scaffold	-12.2888
▁borgwardt	-12.2888
▁energies	-12.2888
▁koltun	-12.2888
▁propensity	-12.2888
▁viterbi	-12.2888
▁surgical	-12.2888
quantifies	-12.2888
▁ghosh	-12.2888
▁tesla	-12.2888
▁wheel	-12.2888
page	-12.2889
▁altogether	-12.2889
▁transmitted	-12.2889
▁resolving	-12.2889
▁unrealistic	-12.289
nis	-12.289
239	-12.289
79,	-12.289
▁wsj	-12.2891
▁outlines	-12.2894
▁bryan	-12.2894
▁wicke	-12.2896
eller	-12.2896
▁allocated	-12.29
▁vascular	-12.2902
▁exhibited	-12.2904
▁hlt	-12.2904
into	-12.2907
▁noiseless	-12.2908
▁15%	-12.2909
▁1982.	-12.2909
▁advantageous	-12.2909
▁3.1.1	-12.291
▁jack	-12.2913
▁correspondingly	-12.2913
▁≫	-12.2917
▁bmc	-12.2918
▁++	-12.2919
▁mcts	-12.292
icra	-12.292
▁typed	-12.2921
▁diagnostics	-12.2922
pes	-12.2922
▁violations	-12.2923
▁ingredients	-12.2924
▁clickbait	-12.2925
ean	-12.2929
211	-12.2929
▁qian	-12.2933
lle	-12.2934
▁bid	-12.2939
▁sdr	-12.2941
▁pgd	-12.2943
▁posted	-12.2943
▁lots	-12.2944
eyton	-12.2944
rik	-12.2944
▁adrian	-12.2946
▁poll	-12.2952
R	-12.2953
general	-12.2955
▁till	-12.2955
about	-12.2956
cdc	-12.2957
letter	-12.2957
tao	-12.2962
content	-12.2963
▁processors	-12.2964
▁hua	-12.2966
sens	-12.2967
ahead	-12.2971
▁koch	-12.2971
sect	-12.2972
kkt	-12.2973
▁campaign	-12.2974
▁repetition	-12.2974
▁radiologist	-12.2974
▁axiom	-12.2974
▁rpca	-12.2979
bounded	-12.298
▁wpl	-12.2981
▁inconsistency	-12.2982
▁grave	-12.2982
–48	-12.2982
▁requests	-12.2982
▁sung	-12.2989
drl	-12.2996
123	-12.3001
▁beats	-12.3002
▁rv	-12.3002
▁subsample	-12.3009
▁erm	-12.301
▁corrupt	-12.3012
dtw	-12.3013
▁parameterize	-12.3013
▁suffix	-12.3013
▁dramatic	-12.3014
▁bousquet	-12.3014
▁facilitating	-12.3014
▁komodakis	-12.3014
▁satisfiability	-12.3014
▁cloze	-12.3014
▁fellowship	-12.3014
▁floor	-12.3014
▁dirac	-12.3014
▁johannes	-12.3014
▁norouz	-12.3014
▁photometric	-12.3015
▁parmar	-12.3016
▁|×	-12.3017
▁commonsense	-12.3017
▁strongest	-12.3019
▁markus	-12.3019
chain	-12.3021
▁tokenized	-12.3023
▁dayan	-12.3025
▁winter	-12.3026
▁decoupled	-12.3027
sensor	-12.303
▁1990	-12.3031
▁unity	-12.3032
sig	-12.3034
cns	-12.3035
▁neg	-12.3039
480	-12.3039
▁polygons	-12.3041
▁scalars	-12.3043
▁acronyms	-12.3046
▁moon	-12.3046
▁modest	-12.3046
▁anton	-12.3047
uer	-12.3054
▁synsets	-12.3057
▁isic	-12.3057
▁cons	-12.3058
46,	-12.3058
▁approximators	-12.3058
4–4	-12.3058
ify	-12.3059
▁2.4.	-12.306
cfg	-12.3062
197	-12.3063
http	-12.3063
jie	-12.3065
cap	-12.3066
296	-12.3066
▁lacking	-12.3068
287	-12.3069
xuan	-12.3077
▁doll	-12.308
zadeh	-12.3081
▁zhong	-12.3083
▁host	-12.3084
▁shao	-12.3086
cru	-12.3094
81,	-12.3094
▁contraction	-12.3096
▁hyperplanes	-12.3097
§	-12.3098
sharing	-12.3099
final	-12.3099
tothe	-12.31
control	-12.31
▁bundle	-12.3102
▁arrangement	-12.3102
.2016.	-12.3105
▁jj	-12.3112
▁transparent	-12.3114
▁pod	-12.3114
▁bypass	-12.3115
▁dance	-12.3118
ssm	-12.3128
ytyr	-12.313
▁seung	-12.313
▁reformulate	-12.313
198	-12.3131
▁rotate	-12.3132
ats	-12.3134
▁submodularity	-12.3135
▁poster	-12.3135
▁regress	-12.3137
num	-12.3139
sided	-12.3139
▁retina	-12.314
mser	-12.314
▁consortium	-12.3143
▁edinburgh	-12.3143
▁encryption	-12.3143
▁frossard	-12.3143
▁graepel	-12.3143
▁histological	-12.3143
▁histology	-12.3143
▁technological	-12.3143
▁thirion	-12.3143
▁jasper	-12.3143
▁javascript	-12.3143
▁lymph	-12.3143
▁equipment	-12.3143
▁stuart	-12.3144
▁generalizable	-12.3144
▁determinantal	-12.3145
▁witnessed	-12.3145
▁revisited	-12.3147
▁handful	-12.3148
▁hubert	-12.3149
▁hermann	-12.3151
▁pump	-12.3153
0)	-12.3153
ql	-12.3154
▁au	-12.3155
▁clues	-12.3158
▁progresses	-12.3158
bot	-12.3159
▁virtually	-12.3159
▁offering	-12.3162
▁reflecting	-12.3163
method	-12.3165
▁km	-12.3166
inter	-12.3167
▁sparseness	-12.3168
▁permits	-12.3168
▁restore	-12.3168
sche	-12.317
▁2.1.1	-12.3171
▁engineers	-12.3171
▁invariants	-12.3171
:1612.0	-12.3174
▁lbp	-12.318
▁reproduced	-12.318
sil	-12.3181
2006	-12.3181
▁rectangle	-12.3182
▁adapts	-12.3182
version	-12.3183
andthe	-12.3183
ments	-12.3187
nh	-12.3189
▁knows	-12.319
zip	-12.3196
▁biol	-12.3197
▁korea	-12.3198
▁(6	-12.3202
spectrogram	-12.3203
▁sleep	-12.3204
▁talks	-12.3207
5–10	-12.3211
ien	-12.3212
▁steve	-12.3212
▁colin	-12.3214
74,	-12.3219
▁electro	-12.3225
kai	-12.3225
▁flag	-12.3225
▁photon	-12.3227
▁7%	-12.3231
▁muscle	-12.3232
▁reformulation	-12.3232
▁snippet	-12.3232
actions	-12.3232
▁stays	-12.3233
215	-12.3233
▁oliva	-12.3238
150	-12.3239
1):	-12.3242
dou	-12.3243
▁8%	-12.3243
rmse	-12.3243
▁std	-12.3243
rish	-12.3245
▁luca	-12.3245
scaling	-12.3245
hour	-12.3247
▁transcriptions	-12.3247
around	-12.3248
derivative	-12.3248
established	-12.3248
available	-12.3248
265	-12.3249
tech	-12.325
eau	-12.3258
▁herein	-12.3258
▁uv	-12.3262
design	-12.3264
▁enrich	-12.3264
210	-12.3266
▁delete	-12.3269
▁1998	-12.3271
▁hunt	-12.3272
▁explosion	-12.3272
▁illustrative	-12.3272
▁luminance	-12.3272
▁mandarin	-12.3272
▁participation	-12.3272
▁seemingly	-12.3272
▁draft	-12.3272
▁boston	-12.3272
▁embodied	-12.3272
▁swapping	-12.3273
▁pricing	-12.3273
▁radiation	-12.3273
▁pearl	-12.3273
▁intuitionistic	-12.3273
▁yelp	-12.3273
▁picas	-12.3273
▁horse	-12.3273
▁lukasz	-12.3273
▁1978.	-12.3274
▁persian	-12.3274
▁unaligned	-12.3275
▁offsets	-12.3275
▁parallelizing	-12.3277
▁zhuang	-12.3277
▁ron	-12.3278
▁firing	-12.3279
▁ode	-12.3279
▁prioritized	-12.3281
▁geometrically	-12.3281
▁kam	-12.3283
late	-12.3284
▁≼	-12.3284
▁longest	-12.3284
▁rgbd	-12.3286
▁rpn	-12.3286
4.5	-12.329
▁minute	-12.3293
oma	-12.3294
ins	-12.3298
emp	-12.3299
▁stars	-12.3299
▁rounding	-12.33
▁affiliations	-12.3301
209	-12.3301
▁hays	-12.3304
▁2.2.2	-12.3305
▁cvar	-12.3306
▁owl	-12.3307
▁pooled	-12.331
▁holes	-12.3311
▁78	-12.3311
▁pronounced	-12.3313
76,	-12.3316
▁eu	-12.3318
tau	-12.3319
▁pq	-12.3319
▁adjective	-12.3323
khz	-12.3324
lvm	-12.3325
mine	-12.3325
dot	-12.3326
▁disadvantages	-12.3336
▁1999	-12.3336
▁eflective	-12.3336
show	-12.3337
oti	-12.3344
▁tagset	-12.3344
▁borders	-12.3346
▁tam	-12.335
ified	-12.335
▁disco	-12.3352
▁err	-12.3359
▁iris	-12.3361
▁š	-12.3364
148	-12.3365
wm	-12.3365
▁gen	-12.3369
▁978-	-12.3372
▁eqs	-12.3372
▁caps	-12.3372
sem	-12.3373
244	-12.3374
163	-12.3377
▁hurt	-12.3381
č	-12.3382
▁restaurants	-12.3383
aba	-12.3384
▁synchronized	-12.3385
132	-12.3387
ville	-12.3389
1),	-12.339
bri	-12.339
▁statist	-12.3393
88,	-12.3395
omp	-12.3399
▁cran	-12.34
cloud	-12.3401
derived	-12.3401
▁skew	-12.3401
third	-12.3401
fw	-12.3401
▁gauss	-12.3404
:1712.0	-12.3404
▁emmanuel	-12.3404
▁grauman	-12.3404
▁griffiths	-12.3404
▁poggio	-12.3404
▁sydney	-12.3404
▁silva	-12.3404
▁contiguous	-12.3404
launch	-12.3404
▁fraud	-12.3404
▁rémi	-12.3404
▁argmin	-12.3406
▁unnormalized	-12.3407
▁rajat	-12.3407
▁hosted	-12.3407
▁explainable	-12.341
▁manuscripts	-12.3411
▁platt	-12.3412
▁maire	-12.3412
ood	-12.3414
▁9(	-12.3414
▁prox	-12.3415
pg	-12.3416
▁offered	-12.3418
kld	-12.342
▁-∞	-12.3422
▁latin	-12.3423
ose	-12.3426
wc	-12.3427
▁gonzalez	-12.3435
▁plant	-12.344
▁timestamp	-12.3441
295	-12.3443
▁kurt	-12.3444
▁auer	-12.3444
▁ewc	-12.3447
’16	-12.3448
▁biometrics	-12.3449
▁ker	-12.3451
pac	-12.3452
mur	-12.3452
lang	-12.3454
▁timeline	-12.3456
digit	-12.3456
logic	-12.3459
241	-12.346
crp	-12.3461
hold	-12.3463
▁pun	-12.3464
▁stations	-12.3465
▁attacking	-12.3466
being	-12.347
city	-12.3471
▁ni	-12.3472
▁says	-12.3474
158	-12.3474
▁organic	-12.3475
▁decent	-12.3475
▁(2005)	-12.3476
▁layered	-12.3478
▁oll	-12.348
etto	-12.348
▁tradeoffs	-12.348
▁pm	-12.3482
▁layouts	-12.3483
problems	-12.3484
attribute	-12.3487
2.8	-12.3488
▁hyponym	-12.3489
post	-12.3489
05.	-12.3492
▁smoother	-12.3496
▁implication	-12.3497
–13	-12.35
yama	-12.35
▁fear	-12.3502
▁clusterings	-12.3505
▁kirkpatrick	-12.3507
▁maxima	-12.3512
▁0.99	-12.3513
effect	-12.3514
▁1.1.	-12.3517
▁serving	-12.3517
▁gris	-12.3518
▁md	-12.3521
▁decouple	-12.3525
▁selector	-12.3527
194	-12.353
▁krishna	-12.3533
▁240	-12.3533
▁1412.6980	-12.3537
▁cauchy	-12.3537
▁indicative	-12.3537
▁knapsack	-12.3537
▁lafferty	-12.3537
▁mahoney	-12.3537
▁recursion	-12.3537
▁tsitsiklis	-12.3537
▁varieties	-12.3537
▁communicating	-12.3537
▁bangla	-12.3537
▁odometry	-12.3537
▁plasticity	-12.3537
▁favorably	-12.3538
▁1–8.	-12.3538
▁shading	-12.3538
▁bowman	-12.3538
within	-12.3539
▁ronan	-12.3539
▁pseudocode	-12.3539
▁glasses	-12.354
▁jha	-12.3541
▁panne	-12.3541
▁weakness	-12.3541
pat	-12.3545
▁harris	-12.3549
assuming	-12.3554
false	-12.3554
instead	-12.3555
▁sv	-12.3555
water	-12.3556
▁grab	-12.3557
-10)	-12.3558
almost	-12.3559
baseline	-12.3559
▁labs	-12.3559
▁stochasticity	-12.3563
lite	-12.3563
▁biomarkers	-12.3564
weighting	-12.3564
▁granted	-12.3566
▁(8	-12.3569
lty	-12.3573
▁powers	-12.3575
cover	-12.3577
dft	-12.3578
▁contaminated	-12.3581
▁enforced	-12.3584
relative	-12.3585
projection	-12.3592
8–6	-12.3593
▁fun	-12.3595
inf	-12.3598
balanced	-12.36
sing	-12.3602
sign	-12.3602
gene	-12.3605
222	-12.3605
tive	-12.3605
mers	-12.3608
▁saving	-12.3608
3).	-12.3609
pipe	-12.3626
▁literal	-12.3629
▁transliteration	-12.3631
chat	-12.3631
▁prompt	-12.3632
▁instantiation	-12.3632
loo	-12.3637
▁pairing	-12.3638
▁feel	-12.364
282	-12.3642
isa	-12.3645
▁labeler	-12.3647
▁rationale	-12.3649
▁(5	-12.365
lasso	-12.3652
▁positively	-12.3653
▁dn	-12.3656
▁distilling	-12.3656
▁reviewing	-12.3658
ios	-12.3658
regions	-12.366
▁prop	-12.3661
ride	-12.3661
▁bull	-12.3661
▁pink	-12.3662
▁julia	-12.3662
▁sre	-12.3666
▁import	-12.3669
~7	-12.3671
▁catalog	-12.3672
▁insurance	-12.3672
▁vancouver	-12.3672
▁chebyshev	-12.3673
▁domingos	-12.3673
▁lemmatization	-12.3673
▁mansour	-12.3673
▁satisfaction	-12.3673
▁kipf	-12.3673
▁flipped	-12.3673
▁emergent	-12.3673
▁kleinberg	-12.3673
▁dropping	-12.3673
ict	-12.3673
▁debiasing	-12.3674
007	-12.3675
994	-12.3675
▁inverting	-12.3676
▁chairs	-12.3679
108	-12.3679
▁collectively	-12.368
▁pagerank	-12.3683
63,	-12.3683
▁distinguishes	-12.3685
sure	-12.3686
▁numerals	-12.3687
▁schedules	-12.3687
program	-12.3689
1+	-12.3693
ales	-12.3694
▁listener	-12.3696
▁linearization	-12.3697
▁managed	-12.3697
▁jacobs	-12.3698
▁wants	-12.3698
formed	-12.3699
nar	-12.37
▁tenth	-12.3702
sg	-12.3702
▁akin	-12.3703
direction	-12.3704
ota	-12.3706
generative	-12.3711
latent	-12.3712
ius	-12.3715
111	-12.3722
string	-12.3722
▁horn	-12.3728
▁seventh	-12.3732
eye	-12.3734
▁designate	-12.3734
▁mary	-12.3734
▁swami	-12.3737
▁aided	-12.3741
▁ü	-12.3742
logy	-12.3743
isch	-12.3745
htm	-12.3748
5–9	-12.3749
:1705.0	-12.375
006	-12.3751
▁songs	-12.3755
3–11	-12.3755
emi	-12.3756
cient	-12.3757
127	-12.3764
:1805.0	-12.3767
▁colours	-12.3769
▁instant	-12.3769
ute	-12.377
▁ffle	-12.3771
eating	-12.3774
nel	-12.3781
bas	-12.3782
▁12,	-12.3784
▁kal	-12.3784
▁separates	-12.3793
▁readable	-12.3794
004	-12.3797
oka	-12.3797
▁disentangle	-12.3797
research	-12.3797
▁bob	-12.3799
231	-12.38
▁coloring	-12.3801
▁ship	-12.3803
▁huber	-12.3808
009	-12.3809
:1710.0	-12.3809
▁craig	-12.3809
▁cynthia	-12.3809
▁librispeech	-12.3809
▁mahalanobis	-12.3809
▁memorization	-12.3809
▁motivating	-12.3809
▁nocedal	-12.3809
▁vulnerabilities	-12.3809
▁lopez	-12.3809
▁dbpedia	-12.381
▁malaria	-12.381
▁leakage	-12.381
▁xiaodong	-12.381
▁1–9,	-12.381
▁christos	-12.381
▁edema	-12.381
▁dilemma	-12.381
▁subsubsection	-12.381
▁hofmann	-12.3811
▁enumeration	-12.3811
▁lazy	-12.3811
▁explorations	-12.3814
▁trip	-12.3814
▁petersen	-12.3814
▁constructive	-12.3815
229	-12.3816
▁roux	-12.3817
▁deploying	-12.3817
ltzy	-12.3818
2005	-12.3819
▁redmon	-12.3819
▁optimizations	-12.382
▁mart	-12.382
▁apache	-12.3821
uh	-12.3823
ère	-12.3825
▁legg	-12.3825
▁snow	-12.3826
▁learnability	-12.383
▁generalised	-12.383
▁codebook	-12.3833
▁drum	-12.3835
▁doina	-12.3835
▁facing	-12.3843
▁iv	-12.3847
▁dsms	-12.3851
▁linux	-12.3854
405	-12.3855
▁15.	-12.3856
kas	-12.3861
cia	-12.3863
▁gha	-12.3863
178	-12.3865
rum	-12.3866
73,	-12.3868
▁picks	-12.3869
euclidean	-12.3869
editing	-12.387
separated	-12.387
abi	-12.3872
75,	-12.3872
▁didn	-12.3873
▁zones	-12.3876
▁makeup	-12.388
▁lesser	-12.3882
sca	-12.3883
copy	-12.3887
etti	-12.3889
according	-12.3893
▁normalised	-12.3893
▁dags	-12.3893
rat	-12.3895
▁advancements	-12.3895
▁dsc	-12.3901
▁tract	-12.3902
versa	-12.3904
▁od	-12.3905
▁modèle	-12.3908
idis	-12.3908
▁vowel	-12.3908
▁sized	-12.3915
xin	-12.3918
▁constructions	-12.392
ré	-12.3921
zel	-12.3923
bib	-12.3923
▁nas	-12.3925
▁epistemic	-12.3927
▁penalization	-12.3927
ender	-12.3928
▁backgrounds	-12.3931
475	-12.3935
▁cold	-12.3937
gold	-12.3938
examples	-12.3941
peng	-12.3943
▁hospitals	-12.3945
▁theoretic	-12.3946
▁martín	-12.3948
▁accompanie	-12.3948
▁brendan	-12.3948
▁continuing	-12.3948
▁espeholt	-12.3948
▁lempitsky	-12.3948
▁paszke	-12.3948
▁preparing	-12.3948
▁prettenhofer	-12.3948
▁robbins	-12.3948
▁sdlbfgs	-12.3948
▁szepesvári	-12.3948
schwarz	-12.3948
▁wrapper	-12.3948
▁scarcity	-12.3948
▁polyneuron	-12.3948
▁geiger	-12.3949
▁barbara	-12.3949
10.1162	-12.395
▁attractiveness	-12.395
▁singing	-12.395
6–9	-12.3951
▁75%	-12.3951
▁worldwide	-12.3951
▁serge	-12.3952
▁lidar	-12.3953
cvae	-12.3954
qt	-12.3954
▁missed	-12.3955
raj	-12.3956
▁gauge	-12.3957
hd	-12.3957
▁feeds	-12.3958
▁bringing	-12.3961
▁noah	-12.3963
▁tpami	-12.3963
▁105	-12.3966
▁compromised	-12.3966
243	-12.3966
▁trusted	-12.3967
▁nontrivial	-12.3967
ür	-12.3968
▁2%	-12.397
▁woman	-12.3971
vam	-12.3971
owski	-12.3973
284	-12.398
▁specialists	-12.3981
80,	-12.3982
▁(2008).	-12.3983
component	-12.3983
▁111	-12.3984
▁(7	-12.3992
▁sending	-12.3992
terminal	-12.3995
ctr	-12.3996
4(2):	-12.4
▁reductions	-12.4
▁quaternions	-12.4002
}}	-12.4006
911	-12.4008
▁gradual	-12.4011
▁battery	-12.4014
▁keys	-12.4014
▁rectifiers	-12.4015
nli	-12.4017
▁16,	-12.4021
▁mises	-12.4021
337	-12.4022
wolfe	-12.4023
separable	-12.4023
▁hor	-12.4024
rio	-12.4025
ç	-12.4027
attentive	-12.4027
ttle	-12.4027
controlled	-12.4028
tensorflow	-12.403
although	-12.4032
▁∈{-	-12.4033
▁gang	-12.4037
tail	-12.4045
kamp	-12.4046
▁cardiovascular	-12.4046
brain	-12.4047
drop	-12.4047
▁ingredient	-12.4049
▁shadow	-12.405
kw	-12.405
ene	-12.4051
▁(2001)	-12.4052
65,	-12.4052
php	-12.4055
305	-12.4056
sbm	-12.4059
knowledge	-12.406
dct	-12.406
▁improv	-12.4066
▁saga	-12.4069
72.	-12.4071
▁3.2.1	-12.4072
▁ban	-12.4076
kdd	-12.4078
▁andre	-12.4079
▁distill	-12.408
▁developer	-12.408
sheet	-12.4081
0.9	-12.4083
▁dificult	-12.4083
▁->	-12.4084
▁2,000	-12.4084
ois	-12.4084
▁restricts	-12.4086
mic	-12.4087
160	-12.4087
8(3):	-12.4089
▁precede	-12.4089
▁eligibility	-12.4089
▁freund	-12.4089
▁grefenstette	-12.4089
▁jennifer	-12.4089
▁karayev	-12.4089
▁khudanpur	-12.4089
▁klimov	-12.4089
▁montavon	-12.4089
▁rabinowitz	-12.4089
▁symmetries	-12.4089
▁tieleman	-12.4089
▁holographic	-12.4089
▁versatile	-12.4089
▁bradley	-12.4089
▁josé	-12.4089
▁ndcg	-12.4089
▁valence	-12.409
▁laptop	-12.409
accordance	-12.409
▁1975.	-12.409
▁1511.0	-12.4091
▁bulletin	-12.4091
141	-12.4091
▁italy	-12.4091
▁descending	-12.4091
▁misleading	-12.4092
▁formatted	-12.4092
yaniv	-12.4094
▁revised	-12.4095
▁protection	-12.4095
▁selectively	-12.4096
",	-12.4096
cae	-12.4097
▁fur	-12.4098
▁linkedin	-12.41
4):	-12.41
▁103	-12.4103
▁absent	-12.4105
-17	-12.4105
▁rat	-12.4107
199	-12.4109
pie	-12.4109
▁isomorphic	-12.4112
▁replication	-12.4112
▁linearized	-12.4113
stat	-12.4115
▁merits	-12.4117
▁listen	-12.4117
rows	-12.4119
▁dv	-12.4119
1).	-12.4119
dose	-12.4121
▁branching	-12.4122
gui	-12.4122
▁univ	-12.4123
▁resnets	-12.4123
▁sak	-12.4124
▁vectorized	-12.4125
pen	-12.4125
67,	-12.4129
▁reused	-12.413
uw	-12.4131
304	-12.4137
checker	-12.4143
slot	-12.415
ration	-12.4151
▁hyp	-12.4155
234	-12.4157
round	-12.4158
ilp	-12.416
▁waves	-12.416
▁evolves	-12.4162
ctc	-12.4163
▁tip	-12.4163
nade	-12.4163
▁inhibitory	-12.4166
▁108	-12.4169
▁∥≤	-12.4173
qing	-12.4174
gio	-12.4176
fft	-12.4176
▁prob	-12.4177
phrase	-12.4177
standing	-12.4179
▁enriched	-12.4181
▁transcript	-12.4182
ila	-12.4183
▁brats	-12.4184
▁nj	-12.4184
naacl	-12.419
contrast	-12.4192
▁float	-12.4193
github	-12.4194
enhanced	-12.4197
existing	-12.4197
higher	-12.42
▁ä	-12.4202
boxes	-12.4203
219	-12.4205
784	-12.4205
▁inch	-12.4209
▁conj	-12.4212
▁vo	-12.4214
540	-12.4215
plus	-12.4215
02,	-12.4216
▁const	-12.4216
▁magnet	-12.4222
chel	-12.4223
∞	-12.4223
▁onset	-12.4225
▁cook	-12.4226
dcnn	-12.4227
negativity	-12.4227
sheng	-12.4229
▁heng	-12.4232
:1412.	-12.4232
▁chaudhuri	-12.4232
▁compensation	-12.4232
▁convincing	-12.4232
▁creativity	-12.4232
▁deepfool	-12.4232
▁fukumizu	-12.4232
▁happiness	-12.4232
▁huffman	-12.4232
▁illustrating	-12.4232
▁instantaneous	-12.4232
▁mackay	-12.4232
▁poisoning	-12.4232
▁(1994)	-12.4232
▁ribeiro	-12.4232
▁tandem	-12.4232
▁queried	-12.4232
▁mohri	-12.4232
▁données	-12.4232
▁bantu	-12.4233
▁downward	-12.4233
▁xeon	-12.4233
▁diego	-12.4233
▁confusing	-12.4233
égas	-12.4233
▁confounding	-12.4234
▁mapreduce	-12.4235
▁cheaper	-12.4235
▁manuel	-12.4235
▁planner	-12.4236
▁probing	-12.4237
▁andriy	-12.4238
▁corporate	-12.4238
ccs	-12.4238
▁exceeding	-12.4238
▁anytime	-12.4238
▁infection	-12.4239
lrec	-12.424
▁haar	-12.424
iam	-12.4241
vit	-12.4245
370	-12.4245
0-1	-12.4246
▁judged	-12.4248
550	-12.4248
▁began	-12.4248
▁ya	-12.4248
▁assert	-12.425
▁humanoid	-12.4255
358	-12.4255
▁sst	-12.4256
▁hub	-12.4257
▁sketching	-12.426
gear	-12.4261
▁squeeze	-12.4264
275	-12.4264
▁ged	-12.4268
angle	-12.4268
▁incurs	-12.4268
lip	-12.4269
▁koh	-12.4269
▁apps	-12.4269
▁vectorization	-12.427
change	-12.4271
lla	-12.4272
▁torr	-12.4273
84,	-12.4274
rgb	-12.4276
noun	-12.4276
▁kaggle	-12.4278
▁diagnoses	-12.428
’18	-12.4282
dsm	-12.4286
2.2	-12.4286
▁defect	-12.4287
▁jung	-12.4288
139	-12.429
25–	-12.4297
▁ready	-12.4298
▁overlapped	-12.43
fb	-12.4303
bt	-12.4303
én	-12.4304
unet	-12.4304
hall	-12.4308
▁exciting	-12.4311
mark	-12.4313
ershel	-12.4318
rov	-12.432
spaces	-12.432
▁pole	-12.4324
=2	-12.4328
▁wi	-12.4328
condition	-12.4332
▁℘	-12.4333
▁reciprocal	-12.4333
▁increment	-12.4334
boy	-12.4338
▁shortcoming	-12.434
▁lobe	-12.434
▁ocean	-12.4354
coding	-12.4358
33,	-12.4358
while	-12.4359
challenge	-12.4359
lets	-12.4359
definition	-12.436
synthetic	-12.4361
three	-12.4362
83,	-12.4363
▁yes	-12.4366
55.	-12.4368
285	-12.4369
slice	-12.4371
skip	-12.4372
sq	-12.4372
▁auli	-12.4372
▁unusual	-12.4374
▁overcomplete	-12.4376
friend	-12.4377
▁plural	-12.4377
▁atmospheric	-12.4377
▁bronstein	-12.4377
▁epidemic	-12.4377
▁gulrajani	-12.4377
▁jurafsky	-12.4377
▁polosukhin	-12.4377
▁winograd	-12.4377
▁felix	-12.4377
▁montreal	-12.4377
▁funny	-12.4377
▁roland	-12.4377
▁yarin	-12.4377
▁unimportant	-12.4377
▁olga	-12.4377
flair	-12.4378
▁conjunctions	-12.4378
▁rudin	-12.4379
▁suffixes	-12.4379
▁yuval	-12.438
▁concurrently	-12.4381
▁inches	-12.4381
▁optionally	-12.4383
▁nelson	-12.4384
▁swap	-12.4384
▁ol	-12.4384
▁triggered	-12.4385
vb	-12.4385
▁confused	-12.4386
142	-12.4386
▁fluctuations	-12.4391
▁preset	-12.4395
rts	-12.4396
▁competitors	-12.4396
▁unfold	-12.4401
▁artif	-12.4401
▁1983.	-12.4403
modeling	-12.4407
▁west	-12.4408
▁urls	-12.4408
1]	-12.4408
▁rbp	-12.441
capsnet	-12.4412
▁___	-12.4412
monotonic	-12.4413
▁shar	-12.4415
▁hypernyms	-12.4415
opf	-12.4416
▁suit	-12.4417
▁smartphones	-12.4417
vision	-12.4419
gc	-12.4419
▁circulant	-12.4423
kur	-12.4427
▁devi	-12.4431
▁amit	-12.4433
▁4000	-12.4433
▁eflects	-12.4435
▁tem	-12.4435
▁leibo	-12.4435
same	-12.4438
aus	-12.4446
▁dangerous	-12.4446
▁kumaran	-12.445
▁2013)	-12.4451
▁slate	-12.4455
▁△	-12.4456
▁neu	-12.4457
child	-12.4457
▁searched	-12.446
tzy	-12.4461
neat	-12.4462
▁orthographic	-12.4464
isse	-12.4465
▁backpropagate	-12.4466
csv	-12.4467
▁trump	-12.4468
▁controllable	-12.4468
▁born	-12.4478
adv	-12.4478
▁ferr	-12.4479
obj	-12.4483
▁polytope	-12.4483
8–9	-12.4483
▁identifier	-12.4484
▁pronoun	-12.4484
▁phenotype	-12.4484
▁smartphone	-12.4484
▁revision	-12.4486
▁scha	-12.4489
▁gau	-12.4491
▁3%	-12.4495
94,	-12.4497
▁gall	-12.4498
2–6	-12.4506
single	-12.4508
▁triangles	-12.4508
cgs	-12.451
▁pursue	-12.4512
foreach	-12.4513
▁ddpg	-12.4514
hei	-12.4515
▁publish	-12.4517
▁gun	-12.452
▁ea	-12.4521
blind	-12.4522
-2012	-12.4524
moisture	-12.4524
▁banerjee	-12.4524
▁comparably	-12.4524
▁corinna	-12.4524
▁earliest	-12.4524
▁tackling	-12.4524
▁qualities	-12.4524
▁roweis	-12.4524
purple	-12.4524
▁satinder	-12.4524
226	-12.4524
▁bodies	-12.4524
▁transitive	-12.4524
▁tumour	-12.4524
mwpc	-12.4525
▁eflectiveness	-12.4525
▁tdgs	-12.4525
▁uninformative	-12.4525
▁simard	-12.4525
▁automata	-12.4525
▁packing	-12.4525
▁derek	-12.4526
▁bulk	-12.4526
▁lunar	-12.4526
▁shawe	-12.4527
▁switches	-12.4528
▁inspecting	-12.4528
▁stocks	-12.4528
16.	-12.4529
▁hourly	-12.4531
escu	-12.4531
▁hwang	-12.4531
260	-12.4532
▁synthetically	-12.4532
forthe	-12.4532
▁15(1):	-12.4532
obtained	-12.4533
thresholding	-12.4535
oll	-12.4535
ition	-12.4536
gal	-12.4536
▁armand	-12.4536
▁infrared	-12.4537
▁sigmoidal	-12.4538
▁horizontally	-12.4539
voc	-12.4539
▁kernelized	-12.4539
▁approached	-12.4541
sight	-12.4542
228	-12.4543
▁jama	-12.4545
ema	-12.4546
58.	-12.4546
▁artwork	-12.4551
hani	-12.4551
▁minimally	-12.4551
▁violation	-12.4553
▁islam	-12.4554
▁lexicase	-12.456
switched	-12.4562
contracting	-12.4563
▁0]	-12.4564
▁drag	-12.4564
▁timestamps	-12.4569
▁bottlenecks	-12.4569
▁eighth	-12.4569
{{	-12.4572
▁deepwalk	-12.4572
▁reid	-12.4573
▁invalid	-12.4575
306	-12.4576
▁aside	-12.4578
▁irrespective	-12.4579
è	-12.4582
▁1995	-12.4583
170	-12.4584
junction	-12.4584
▁logics	-12.4586
jing	-12.4587
▁treebanks	-12.4588
original	-12.4588
▁ftp	-12.4589
95,	-12.4591
▁transe	-12.4593
▁corne	-12.4594
▁ferrer	-12.4595
:1702.0	-12.4597
graphs	-12.4597
gra	-12.4598
apr	-12.4599
▁ari	-12.4601
▁constantly	-12.4607
news	-12.461
▁positioned	-12.461
lich	-12.4614
▁infect	-12.4614
9–9	-12.4617
224	-12.4618
▁invariances	-12.4622
▁anger	-12.4627
nat	-12.4628
▁river	-12.4631
~{	-12.4631
▁pg	-12.4632
▁exceptions	-12.4633
dur	-12.4635
▁loc	-12.4639
▁teach	-12.4643
▁kan	-12.4644
▁genomes	-12.4648
338	-12.4653
▁diverge	-12.4653
iser	-12.4654
fac	-12.4656
▁maas	-12.4661
346	-12.4663
▁polit	-12.4664
▁thi	-12.4666
529	-12.4671
▁cardinal	-12.4673
▁prohibit	-12.4673
υ	-12.4673
▁criminal	-12.4673
▁cumbersome	-12.4673
▁frédéric	-12.4673
▁membrane	-12.4673
▁occupancy	-12.4673
▁prognosis	-12.4673
▁repositories	-12.4673
▁striking	-12.4673
▁vandergheynst	-12.4673
▁[24]	-12.4673
hydro	-12.4673
conquer	-12.4673
▁boldface	-12.4674
▁mouse	-12.4674
▁oliver	-12.4675
▁alain	-12.4675
▁cohn	-12.4675
▁neutr	-12.4675
▁possesses	-12.4676
▁outstanding	-12.4676
▁blurry	-12.4676
▁develops	-12.4677
▁99%	-12.4677
▁android	-12.4678
dra	-12.4678
hal	-12.4679
▁74.	-12.4679
▁prevention	-12.468
trans	-12.4686
▁disorder	-12.4687
▁levin	-12.4687
▁speak	-12.4687
ypz	-12.469
▁deux	-12.469
▁lfw	-12.469
tb	-12.4692
▁tube	-12.4693
▁activate	-12.4693
1–35	-12.4694
▁nzy	-12.4694
254	-12.4694
∈	-12.4695
▁spreading	-12.4695
have	-12.47
▁buyers	-12.4701
french	-12.4701
▁party	-12.4702
linguistic	-12.4703
▁berger	-12.4703
attack	-12.4703
▁qiu	-12.4704
▁tx	-12.4705
▁usable	-12.4709
▁curated	-12.4709
▁qua	-12.4711
▁physicians	-12.4713
spot	-12.4714
variant	-12.4714
▁gm	-12.4719
rist	-12.4721
270	-12.4721
▁rectangles	-12.4721
212	-12.4723
etal	-12.4727
mip	-12.4727
▁chandra	-12.4728
▁deepid	-12.4728
▁wealth	-12.4731
à	-12.4732
▁2.7	-12.4733
▁2012)	-12.4734
’17	-12.4737
▁mlic	-12.4737
▁proj	-12.4744
▁hide	-12.4748
▁stl	-12.475
▁wake	-12.4758
rip	-12.4759
▁ivan	-12.4761
700	-12.4762
798	-12.4763
mura	-12.4763
521	-12.4765
▁yp	-12.477
▁sell	-12.4775
▁enter	-12.4779
2004	-12.4782
▁physician	-12.4785
▁123	-12.4787
▁vein	-12.4791
-1)	-12.4792
▁xml	-12.4794
▁era	-12.4795
cri	-12.4797
▁122	-12.4798
112	-12.4799
▁sobolev	-12.4802
274	-12.4804
▁107	-12.4808
313	-12.4808
▁cg	-12.4811
▁collects	-12.4815
ear	-12.4815
▁ecml	-12.4815
wz	-12.4816
untert	-12.4818
▁viola	-12.4819
▁utilise	-12.482
lsh	-12.482
▁exam	-12.482
008	-12.4823
▁pilot	-12.4823
impute	-12.4824
:1603.0	-12.4825
lakshminarayanan	-12.4825
▁analysing	-12.4825
▁bagnell	-12.4825
▁catanzaro	-12.4825
▁continuum	-12.4825
▁economy	-12.4825
▁jerome	-12.4825
▁kulkarni	-12.4825
▁laptev	-12.4825
▁artiffcial	-12.4825
▁imprecise	-12.4825
▁parsimonious	-12.4825
▁nombre	-12.4825
▁chaotic	-12.4825
▁undesired	-12.4825
▁pietro	-12.4825
▁tractability	-12.4825
▁arcade	-12.4825
▁legend	-12.4825
▁truck	-12.4825
▁carries	-12.4826
▁]),	-12.4826
lig	-12.4826
uli	-12.4826
▁census	-12.4826
▁skipped	-12.4826
▁|≥	-12.4827
▁knee	-12.4827
▁histopathology	-12.4827
mle	-12.4827
burg	-12.4827
▁conform	-12.4828
hiner	-12.4829
▁iain	-12.4829
▁combat	-12.4831
hammer	-12.4831
▁successively	-12.4832
qq	-12.4832
▁informally	-12.4833
▁happened	-12.4833
)]	-12.4834
▁béz	-12.4834
icon	-12.4835
ík	-12.4836
▁6.5	-12.4836
▁≽	-12.4838
bandit	-12.4838
▁roberto	-12.4838
ace	-12.4839
▁6.2	-12.4839
fromthe	-12.4839
–80	-12.4841
▁clinicians	-12.4842
▁revealing	-12.4842
▁transposed	-12.4844
▁0001	-12.4847
▁stefano	-12.4851
▁activitynet	-12.4852
tting	-12.4853
97,	-12.4854
▁lag	-12.4855
190	-12.4857
▁stft	-12.4861
▁counted	-12.4861
▁marginally	-12.4861
23.	-12.4864
10)	-12.4865
▁zoom	-12.4865
026	-12.4866
▁sept	-12.4868
review	-12.4869
read	-12.487
273	-12.4873
exploitation	-12.4874
çe	-12.4875
dv	-12.4876
▁fixations	-12.4876
regression	-12.4877
▁cord	-12.4877
hang	-12.4877
coordinate	-12.4878
owell	-12.4882
iability	-12.4884
▁flu	-12.4885
divergences	-12.4888
slav	-12.4888
▁cw	-12.4889
who	-12.4889
▁14,	-12.4893
zar	-12.4897
320	-12.4898
▁teachers	-12.49
meaning	-12.4904
▁20:	-12.4908
complex	-12.491
▁sara	-12.4911
▁spontaneous	-12.4911
16)	-12.4911
cock	-12.4913
unt	-12.4914
ign	-12.4916
▁wolfe	-12.4921
vant	-12.4923
current	-12.4924
303	-12.4924
▁organize	-12.4926
▁raise	-12.4927
api	-12.4927
glass	-12.493
▁conflicts	-12.4932
▁3(	-12.4933
nite	-12.4936
▁antecedent	-12.4938
▁prescription	-12.4938
▁diflerence	-12.4938
bil	-12.4941
▁constrains	-12.4941
haz	-12.4943
▁subgroup	-12.4944
▁hb	-12.4945
▁sato	-12.495
▁dominate	-12.495
▁und	-12.496
front	-12.496
272	-12.496
wsd	-12.4964
▁blend	-12.4968
▁equi	-12.4968
rand	-12.4968
▁hou	-12.4969
aid	-12.4969
2).	-12.497
gated	-12.4971
▁nms	-12.4975
aurelio	-12.4979
osophic	-12.4979
▁aggregator	-12.4979
▁bojanowski	-12.4979
▁crammer	-12.4979
▁czarnecki	-12.4979
▁deisenroth	-12.4979
▁memristor	-12.4979
▁mujoco	-12.4979
▁rectification	-12.4979
▁spectroscopy	-12.4979
▁arrival	-12.4979
▁diabetic	-12.4979
▁chapelle	-12.4979
▁1967.	-12.4979
▁todorov	-12.4979
▁geforce	-12.4979
▁slack	-12.4979
▁serial	-12.4979
▁seamlessly	-12.498
▁vanishes	-12.498
▁surpasses	-12.498
▁hdp	-12.498
maison	-12.498
▁normalisation	-12.4981
▁logged	-12.4981
▁computable	-12.4982
▁kos	-12.4982
▁flux	-12.4982
▁signiffcantly	-12.4982
▁walsh	-12.4982
▁prescribed	-12.4982
▁9(8):	-12.4982
▁automl	-12.4985
▁texas	-12.4985
▁21:	-12.4985
ants	-12.4985
▁msd	-12.4987
▁normality	-12.4987
talk	-12.4989
▁massively	-12.4989
▁banks	-12.4989
▁whye	-12.4991
lehman	-12.4991
▁localizing	-12.4992
2–5	-12.4992
▁fingerprinting	-12.4995
▁1979.	-12.4995
mae	-12.4996
536	-12.4997
chanan	-12.4997
▁nav	-12.4997
mission	-12.4998
▁persona	-12.4999
cols	-12.5
▁vu	-12.5003
▁vel	-12.5003
▁hypothesized	-12.5011
▁morphemes	-12.5011
▁wa	-12.5013
clean	-12.5014
72,	-12.5015
▁117	-12.5019
▁critically	-12.5019
▁dst	-12.5021
▁elementwise	-12.5023
▁ppo	-12.5023
▁nag	-12.5025
ello	-12.5027
▁resize	-12.5028
)[	-12.5033
▁irl	-12.5034
▁lk	-12.5036
308	-12.5039
▁standing	-12.5041
▁divides	-12.5042
206	-12.5044
neurips	-12.5051
rmsprop	-12.5052
tab	-12.5053
▁hebrew	-12.5053
▁2(1):	-12.5055
▁gestures	-12.5055
submodular	-12.5055
limited	-12.5056
ψ	-12.5057
vgg	-12.5057
check	-12.5058
david	-12.5058
mont	-12.5058
alm	-12.5059
hoos	-12.5059
alignment	-12.506
span	-12.5061
common	-12.5066
973	-12.5067
70,	-12.5069
▁scanners	-12.5071
vt	-12.5071
.2015.	-12.5074
1993	-12.5077
kes	-12.5077
→	-12.5078
71,	-12.5079
▁someone	-12.5079
232	-12.508
▁iid	-12.5085
iness	-12.5092
frames	-12.5092
▁culture	-12.5094
▁symptom	-12.5095
▁chem	-12.5096
ups	-12.5097
▁derives	-12.5098
▁graduate	-12.51
▁transfers	-12.51
▁114	-12.5102
eme	-12.5103
177	-12.5113
294	-12.5121
▁spi	-12.5122
:1610.0	-12.5124
▁1980.	-12.5124
2002	-12.5125
oov	-12.5128
▁meier	-12.513
▁generalise	-12.513
▁fund	-12.5132
▁radical	-12.5132
promoting	-12.5135
▁andrychowicz	-12.5135
▁arnaud	-12.5135
▁cholesky	-12.5135
▁comprehend	-12.5135
▁dabney	-12.5135
▁dhruv	-12.5135
▁iwslt	-12.5135
▁jitendra	-12.5135
▁mammography	-12.5135
▁monomials	-12.5135
▁occupation	-12.5135
▁philosophical	-12.5135
▁polyphonic	-12.5135
▁navigate	-12.5135
▁century	-12.5135
▁identifiable	-12.5135
▁winther	-12.5135
▁pulse	-12.5135
stationarity	-12.5135
clevr	-12.5135
▁madry	-12.5135
▁fluent	-12.5135
▁polyak	-12.5135
▁hypersphere	-12.5135
▁jackel	-12.5136
▁koren	-12.5136
▁lipton	-12.5136
▁rationality	-12.5136
▁wavelength	-12.5136
▁sensible	-12.5137
▁spectrograms	-12.5137
▁lihong	-12.5138
calibrated	-12.5138
▁samek	-12.5139
▁ffltering	-12.5141
bach	-12.5141
▁jitter	-12.5143
▁baby	-12.5145
▁jay	-12.5146
▁matting	-12.5146
▁mismatched	-12.5146
▁(2003)	-12.5147
▁bike	-12.5148
▁kaae	-12.5149
▁resampling	-12.5151
cxr	-12.5151
191	-12.5152
▁cec	-12.5153
473	-12.5153
▁laurens	-12.5153
▁morphologically	-12.5156
251	-12.5158
call	-12.5159
▁prepositions	-12.5159
▁milan	-12.516
▁formulating	-12.5162
▁102	-12.5163
hein	-12.5165
hur	-12.5171
▁ninth	-12.5175
▁13(	-12.5177
▁pronouns	-12.5178
▁showcase	-12.5179
▁aging	-12.5179
▁estimations	-12.5181
hav	-12.5182
567	-12.5183
▁inversely	-12.5184
▁coll	-12.5189
▁spd	-12.519
sam	-12.5194
tuple	-12.5196
snr	-12.5196
▁gnns	-12.5197
▁warp	-12.5198
▁icdar	-12.5198
tells	-12.5201
ssd	-12.5203
▁tsp	-12.5204
ky	-12.5205
▁reside	-12.5213
▁disambiguate	-12.5213
▁lamb	-12.5217
▁networking	-12.5217
▁3000	-12.522
▁dispersion	-12.5222
hear	-12.5222
77,	-12.5223
▁wh	-12.5226
▁118	-12.5229
416	-12.523
▁mori	-12.5233
▁memorize	-12.5233
horizon	-12.5235
abstract	-12.5238
supervision	-12.5239
▁cub	-12.5239
improving	-12.5239
query	-12.524
multiple	-12.524
364	-12.5242
")	-12.5243
▁pull	-12.5244
super	-12.5244
69,	-12.5245
▁sagittal	-12.5245
air	-12.5247
▁kcf	-12.5247
cifar	-12.5249
headed	-12.5251
▁kale	-12.5252
▁runtimes	-12.5252
▁formulae	-12.5252
016	-12.5253
▁ticket	-12.5253
▁sememe	-12.5253
▁coincide	-12.5253
▁footnote	-12.5254
▁assistant	-12.5254
▁msr	-12.5254
▁webpage	-12.5254
▁dsm	-12.5257
▁pat	-12.5258
sift	-12.5258
▁kay	-12.5259
▁workload	-12.5259
▁fid	-12.5259
▁nmr	-12.5259
▁spline	-12.5265
92,	-12.5266
690	-12.5267
▁prime	-12.5267
▁taggers	-12.5267
gat	-12.5268
tiga	-12.5269
km	-12.5276
provided	-12.5277
▁singleton	-12.5277
▁typ	-12.5279
home	-12.528
▁edwards	-12.5284
▁1;	-12.5284
ista	-12.5288
90,	-12.5288
sourcing	-12.5293
▁expands	-12.5294
commutative	-12.5294
ũ	-12.5294
▁advocate	-12.5294
▁asplünd	-12.5294
▁croatian	-12.5294
[...]
